{"0": "\u0000", "1": "\u0001", "2": "\u0002", "3": "\u0003", "4": "\u0004", "5": "\u0005", "6": "\u0006", "7": "\u0007", "8": "\b", "9": "\t", "10": "\n", "11": "\u000b", "12": "\f", "13": "\r", "14": "\u000e", "15": "\u000f", "16": "\u0010", "17": "\u0011", "18": "\u0012", "19": "\u0013", "20": "\u0014", "21": "\u0015", "22": "\u0016", "23": "\u0017", "24": "\u0018", "25": "\u0019", "26": "\u001a", "27": "\u001b", "28": "\u001c", "29": "\u001d", "30": "\u001e", "31": "\u001f", "32": " ", "33": "!", "34": "\"", "35": "#", "36": "$", "37": "%", "38": "&", "39": "'", "40": "(", "41": ")", "42": "*", "43": "+", "44": ",", "45": "-", "46": ".", "47": "/", "48": "0", "49": "1", "50": "2", "51": "3", "52": "4", "53": "5", "54": "6", "55": "7", "56": "8", "57": "9", "58": ":", "59": ";", "60": "<", "61": "=", "62": ">", "63": "?", "64": "@", "65": "A", "66": "B", "67": "C", "68": "D", "69": "E", "70": "F", "71": "G", "72": "H", "73": "I", "74": "J", "75": "K", "76": "L", "77": "M", "78": "N", "79": "O", "80": "P", "81": "Q", "82": "R", "83": "S", "84": "T", "85": "U", "86": "V", "87": "W", "88": "X", "89": "Y", "90": "Z", "91": "[", "92": "\\", "93": "]", "94": "^", "95": "_", "96": "`", "97": "a", "98": "b", "99": "c", "100": "d", "101": "e", "102": "f", "103": "g", "104": "h", "105": "i", "106": "j", "107": "k", "108": "l", "109": "m", "110": "n", "111": "o", "112": "p", "113": "q", "114": "r", "115": "s", "116": "t", "117": "u", "118": "v", "119": "w", "120": "x", "121": "y", "122": "z", "123": "{", "124": "|", "125": "}", "126": "~", "127": "\u007f", "128": "\u0080", "129": "\u0081", "130": "\u0082", "131": "\u0083", "132": "\u0084", "133": "\u0085", "134": "\u0086", "135": "\u0087", "136": "\u0088", "137": "\u0089", "138": "\u008a", "139": "\u008b", "140": "\u008c", "141": "\u008d", "142": "\u008e", "143": "\u008f", "144": "\u0090", "145": "\u0091", "146": "\u0092", "147": "\u0093", "148": "\u0094", "149": "\u0095", "150": "\u0096", "151": "\u0097", "152": "\u0098", "153": "\u0099", "154": "\u009a", "155": "\u009b", "156": "\u009c", "157": "\u009d", "158": "\u009e", "159": "\u009f", "160": "\u00a0", "161": "\u00a1", "162": "\u00a2", "163": "\u00a3", "164": "\u00a4", "165": "\u00a5", "166": "\u00a6", "167": "\u00a7", "168": "\u00a8", "169": "\u00a9", "170": "\u00aa", "171": "\u00ab", "172": "\u00ac", "173": "\u00ad", "174": "\u00ae", "175": "\u00af", "176": "\u00b0", "177": "\u00b1", "178": "\u00b2", "179": "\u00b3", "180": "\u00b4", "181": "\u00b5", "182": "\u00b6", "183": "\u00b7", "184": "\u00b8", "185": "\u00b9", "186": "\u00ba", "187": "\u00bb", "188": "\u00bc", "189": "\u00bd", "190": "\u00be", "191": "\u00bf", "192": "\u00c0", "193": "\u00c1", "194": "\u00c2", "195": "\u00c3", "196": "\u00c4", "197": "\u00c5", "198": "\u00c6", "199": "\u00c7", "200": "\u00c8", "201": "\u00c9", "202": "\u00ca", "203": "\u00cb", "204": "\u00cc", "205": "\u00cd", "206": "\u00ce", "207": "\u00cf", "208": "\u00d0", "209": "\u00d1", "210": "\u00d2", "211": "\u00d3", "212": "\u00d4", "213": "\u00d5", "214": "\u00d6", "215": "\u00d7", "216": "\u00d8", "217": "\u00d9", "218": "\u00da", "219": "\u00db", "220": "\u00dc", "221": "\u00dd", "222": "\u00de", "223": "\u00df", "224": "\u00e0", "225": "\u00e1", "226": "\u00e2", "227": "\u00e3", "228": "\u00e4", "229": "\u00e5", "230": "\u00e6", "231": "\u00e7", "232": "\u00e8", "233": "\u00e9", "234": "\u00ea", "235": "\u00eb", "236": "\u00ec", "237": "\u00ed", "238": "\u00ee", "239": "\u00ef", "240": "\u00f0", "241": "\u00f1", "242": "\u00f2", "243": "\u00f3", "244": "\u00f4", "245": "\u00f5", "246": "\u00f6", "247": "\u00f7", "248": "\u00f8", "249": "\u00f9", "250": "\u00fa", "251": "\u00fb", "252": "\u00fc", "253": "\u00fd", "254": "\u00fe", "255": "\u00ff", "256": " t", "257": "he", "258": " a", "259": "in", "260": " the", "261": "er", "262": "on", "263": " ,", "264": "ed", "265": " s", "266": "re", "267": " o", "268": " w", "269": "nd", "270": "at", "271": "or", "272": " .", "273": "it", "274": "is", "275": " f", "276": "ar", "277": " c", "278": "en", "279": " of", "280": "es", "281": " in", "282": "an", "283": "al", "284": " b", "285": " p", "286": "ing", "287": "as", "288": " and", "289": " to", "290": "ic", "291": "ro", "292": " m", "293": " d", "294": " h", "295": "ion", "296": "le", "297": " T", "298": " re", "299": "ou", "300": " A", "301": " S", "302": " =", "303": " th", "304": "ent", "305": " \"", "306": "il", "307": "ol", "308": "el", "309": " @", "310": "st", "311": " C", "312": "ad", "313": " \n", "314": " l", "315": "om", "316": "ct", "317": " n", "318": " e", "319": " was", "320": " g", "321": "am", "322": "ir", "323": "ur", "324": " on", "325": "im", "326": " be", "327": " I", "328": " for", "329": " @-", "330": " @-@", "331": "ly", "332": " M", "333": " B", "334": " The", "335": "ot", "336": "id", "337": "iv", "338": "ith", "339": " as", "340": "ch", "341": " '", "342": "et", "343": "ation", "344": "ig", "345": "ow", "346": "ra", "347": " P", "348": " he", "349": "ce", "350": "ut", "351": " st", "352": " with", "353": "ay", "354": " that", "355": "us", "356": "ter", "357": " al", "358": "um", "359": " F", "360": "ul", "361": " H", "362": " R", "363": " W", "364": "ver", "365": "  ", "366": " G", "367": "em", "368": " wh", "369": " an", "370": " by", "371": "ist", "372": "un", "373": " at", "374": "19", "375": " N", "376": " J", "377": " con", "378": " is", "379": "th", "380": "ers", "381": "av", "382": " D", "383": "os", "384": " se", "385": " )", "386": "rom", "387": " (", "388": " de", "389": "and", "390": "od", "391": " E", "392": " L", "393": "ag", "394": "ere", "395": "ck", "396": " it", "397": "her", "398": "ies", "399": " were", "400": "00", "401": " his", "402": "ain", "403": "pp", "404": " pro", "405": "est", "406": "ri", "407": "ord", "408": " from", "409": "res", "410": "ort", "411": " su", "412": " com", "413": " In", "414": "ew", "415": "if", "416": " v", "417": "se", "418": "op", "419": " sh", "420": " O", "421": "ill", "422": "ate", "423": "ich", "424": "art", "425": " pl", "426": "ated", "427": "all", "428": "ber", "429": "ld", "430": "igh", "431": " ex", "432": " or", "433": "pt", "434": "und", "435": "rit", "436": "ess", "437": "ear", "438": "ab", "439": "gh", "440": "ore", "441": "pe", "442": "ak", "443": "ong", "444": "ard", "445": " K", "446": " U", "447": " \u00e2", "448": "ame", "449": "ish", "450": "ant", "451": " ch", "452": "ru", "453": "ity", "454": "og", "455": "qu", "456": " \u00e2\u0080", "457": "ud", "458": " ar", "459": " had", "460": " which", "461": "ian", "462": "ial", "463": "ip", "464": "ive", "465": "ment", "466": " are", "467": "ran", "468": " ;", "469": " St", "470": " le", "471": " Ch", "472": "ia", "473": "up", "474": "so", "475": "ost", "476": "ov", "477": "ac", "478": "own", "479": "ction", "480": "ary", "481": " not", "482": "our", "483": " y", "484": "out", "485": " k", "486": "ight", "487": "ap", "488": "20", "489": "ide", "490": " V", "491": " her", "492": "ine", "493": "ave", "494": "ast", "495": " r", "496": "ork", "497": "200", "498": " \u00e2\u0080\u0093", "499": "cc", "500": "ue", "501": "ell", "502": "ub", "503": " also", "504": "oc", "505": "ical", "506": " their", "507": "ition", "508": "ther", "509": "fter", "510": "ust", "511": "cl", "512": "ack", "513": "ign", "514": "ure", "515": " per", "516": "nt", "517": "ge", "518": "wo", "519": " He", "520": "ome", "521": "ous", "522": "ie", "523": " rec", "524": " un", "525": "ff", "526": " cont", "527": " fir", "528": "man", "529": "ould", "530": " cl", "531": "ime", "532": "oll", "533": "oin", "534": "ult", "535": "ass", "536": "ect", "537": "ater", "538": "201", "539": "ations", "540": " int", "541": " Y", "542": "pl", "543": "hed", "544": " Th", "545": "ond", "546": " Al", "547": " sc", "548": " first", "549": " ab", "550": "ark", "551": " its", "552": " ro", "553": " one", "554": "old", "555": "ough", "556": "uring", "557": "ire", "558": " te", "559": " whe", "560": " play", "561": " app", "562": " who", "563": "per", "564": "ok", "565": " this", "566": "du", "567": "ey", "568": " has", "569": "bum", "570": "ory", "571": " god", "572": " two", "573": "port", "574": " but", "575": " have", "576": " album", "577": " us", "578": " been", "579": " part", "580": " all", "581": " she", "582": " comp", "583": "ree", "584": " j", "585": " @.", "586": " @.@", "587": "olog", "588": "ence", "589": "mer", "590": " im", "591": "ely", "592": " off", "593": "ason", "594": "ound", "595": "te", "596": "ally", "597": "ities", "598": " year", "599": "ugh", "600": " dis", "601": "age", "602": "ry", "603": "ile", "604": " ad", "605": " en", "606": "ced", "607": "ach", "608": " :", "609": " after", "610": "18", "611": " res", "612": "ft", "613": " des", "614": " It", "615": "ited", "616": "ade", "617": "ph", "618": "ordan", "619": "ron", "620": " man", "621": "iz", "622": " @,", "623": " @,@", "624": "over", "625": " Jordan", "626": " other", "627": " Ar", "628": "act", "629": " over", "630": " Whe", "631": " Pol", "632": " ag", "633": " und", "634": " time", "635": " bec", "636": "clud", "637": "ents", "638": "ted", "639": "ied", "640": " air", "641": "for", "642": " Sh", "643": " rem", "644": "als", "645": "are", "646": "ib", "647": "ubl", "648": "les", "649": " Re", "650": " De", "651": " under", "652": "ts", "653": " Un", "654": "ress", "655": " Brit", "656": "ilm", "657": "leas", "658": " up", "659": "round", "660": "ite", "661": "ors", "662": " pre", "663": " they", "664": "ance", "665": " Se", "666": " more", "667": "ose", "668": "ock", "669": " includ", "670": " season", "671": "erv", "672": "vi", "673": "ae", "674": " ne", "675": "eler", "676": " new", "677": " them", "678": "ned", "679": "199", "680": " out", "681": "rough", "682": " record", "683": " inter", "684": "ice", "685": " sec", "686": "ces", "687": "ward", "688": " ev", "689": " Wheeler", "690": " spe", "691": " reg", "692": "reat", "693": "ind", "694": "oy", "695": "ik", "696": "ered", "697": "ild", "698": "gan", "699": " into", "700": "ee", "701": "chae", "702": "chaeolog", "703": " him", "704": " tra", "705": "ings", "706": " releas", "707": "ember", "708": " fl", "709": "way", "710": "ric", "711": "hip", "712": " film", "713": "tle", "714": "fer", "715": " work", "716": "ony", "717": "ans", "718": " comm", "719": "ular", "720": "able", "721": " Ind", "722": " during", "723": " produ", "724": " As", "725": "ace", "726": " act", "727": " most", "728": " ret", "729": "ull", "730": " would", "731": "rib", "732": " publ", "733": " pr", "734": " att", "735": "oth", "736": "aw", "737": " sub", "738": " On", "739": " form", "740": "usic", "741": " mon", "742": "land", "743": " only", "744": " fe", "745": "ning", "746": "ions", "747": " sp", "748": " Town", "749": " being", "750": " ear", "751": "ower", "752": "ail", "753": "ix", "754": "ates", "755": " gods", "756": "one", "757": " rel", "758": " cons", "759": "ount", "760": " British", "761": " bas", "762": "ener", "763": "ject", "764": "erman", "765": "use", "766": "ational", "767": "vel", "768": "end", "769": "son", "770": " game", "771": "iss", "772": "ens", "773": " num", "774": "ng", "775": " end", "776": "orth", "777": " German", "778": " ant", "779": "wn", "780": " three", "781": " four", "782": " fin", "783": "ick", "784": " kn", "785": " song", "786": " me", "787": "ished", "788": "iet", "789": "gy", "790": " go", "791": "ollow", "792": " through", "793": " second", "794": " team", "795": " met", "796": "arg", "797": "az", "798": " She", "799": "raft", "800": "red", "801": " am", "802": "iel", "803": "ames", "804": " York", "805": " ship", "806": " Polish", "807": "ook", "808": "ang", "809": " pol", "810": "een", "811": "fore", "812": "outh", "813": " such", "814": " pos", "815": " acc", "816": "ict", "817": " about", "818": " later", "819": " cent", "820": "air", "821": "rist", "822": "send", "823": "tern", "824": " some", "825": "ten", "826": " Townsend", "827": " writ", "828": " where", "829": "ake", "830": " sy", "831": "ons", "832": "ious", "833": " inc", "834": "imony", "835": "form", "836": " again", "837": " gro", "838": " min", "839": " bu", "840": "resent", "841": " made", "842": " rep", "843": "cted", "844": "ars", "845": " spec", "846": " while", "847": "orld", "848": " bet", "849": "ised", "850": " many", "851": " Egy", "852": " Egypt", "853": " when", "854": " than", "855": "000", "856": " ass", "857": " Bl", "858": " so", "859": " lead", "860": "ved", "861": "ath", "862": " New", "863": " ind", "864": " char", "865": "though", "866": "ute", "867": " supp", "868": " remain", "869": " before", "870": " Christ", "871": " follow", "872": " then", "873": "ob", "874": "ween", "875": " archaeolog", "876": "elf", "877": " ra", "878": "198", "879": " both", "880": " inst", "881": "ists", "882": "ily", "883": "ike", "884": " number", "885": " sign", "886": "ual", "887": " Z", "888": "ug", "889": " All", "890": "ating", "891": " inv", "892": "ool", "893": "amp", "894": " ac", "895": " sur", "896": " used", "897": " Com", "898": "hes", "899": "ve", "900": " Le", "901": "ral", "902": " hist", "903": "ield", "904": "led", "905": "rans", "906": " these", "907": " high", "908": " ob", "909": " ele", "910": "ern", "911": " sever", "912": "oh", "913": "194", "914": " Fey", "915": " do", "916": " there", "917": " car", "918": "orn", "919": " bel", "920": " oper", "921": "ived", "922": "ific", "923": " war", "924": " At", "925": " pe", "926": "aid", "927": " can", "928": " no", "929": " sing", "930": " tr", "931": " music", "932": " between", "933": "oot", "934": " years", "935": "other", "936": "eb", "937": "ky", "938": "ah", "939": "ale", "940": " Cl", "941": "ty", "942": " disc", "943": " div", "944": " dep", "945": "my", "946": " An", "947": " well", "948": "ren", "949": "craft", "950": "ures", "951": "emb", "952": " dec", "953": " could", "954": " art", "955": " became", "956": " stud", "957": " back", "958": "owe", "959": " began", "960": " After", "961": " released", "962": " poin", "963": "ife", "964": " United", "965": "dition", "966": "ci", "967": "pr", "968": "irect", "969": "ics", "970": " main", "971": "ters", "972": "osed", "973": " This", "974": " long", "975": " ser", "976": "aj", "977": " appear", "978": "arch", "979": "191", "980": "ision", "981": "igin", "982": "ored", "983": " public", "984": " qu", "985": " est", "986": " win", "987": " loc", "988": "overn", "989": "reas", "990": "ise", "991": " charact", "992": " offic", "993": " prom", "994": " day", "995": "   ", "996": "alled", "997": " ent", "998": " trans", "999": " ord", "1000": "ism", "1001": "ican", "1002": " sm", "1003": " em", "1004": "ton", "1005": "ury", "1006": "ier", "1007": " known", "1008": "imes", "1009": " cre", "1010": "ai", "1011": "velop", "1012": " imp", "1013": "ys", "1014": "10", "1015": "ional", "1016": " desc", "1017": " Egyptian", "1018": " rece", "1019": " dif", "1020": " bat", "1021": " pers", "1022": "pect", "1023": " mov", "1024": " def", "1025": " several", "1026": "ros", "1027": "ets", "1028": " gold", "1029": " NB", "1030": "rol", "1031": " class", "1032": " contin", "1033": "view", "1034": "io", "1035": "mas", "1036": " retur", "1037": " crit", "1038": "ting", "1039": "ather", "1040": " co", "1041": "ued", "1042": "ccess", "1043": "ured", "1044": " Ad", "1045": "ober", "1046": " including", "1047": "chool", "1048": " aircraft", "1049": " deities", "1050": " II", "1051": " develop", "1052": " design", "1053": " Nov", "1054": " origin", "1055": "its", "1056": " found", "1057": "ful", "1058": "ert", "1059": "ident", "1060": " Christmas", "1061": " hum", "1062": " doll", "1063": " antimony", "1064": " bl", "1065": " ver", "1066": "owever", "1067": "stru", "1068": " gun", "1069": "193", "1070": " ph", "1071": " serv", "1072": " feat", "1073": "ines", "1074": "cial", "1075": " ca", "1076": " arm", "1077": " state", "1078": "erm", "1079": " \u00e2\u0080\u0094", "1080": "ized", "1081": "ided", "1082": " For", "1083": "ues", "1084": "eneral", "1085": "ired", "1086": " exc", "1087": " May", "1088": "ople", "1089": "30", "1090": "192", "1091": " var", "1092": "row", "1093": " Con", "1094": "rum", "1095": " plan", "1096": " Joh", "1097": "aking", "1098": " col", "1099": "rang", "1100": "15", "1101": "ittle", "1102": "fl", "1103": " near", "1104": "illion", "1105": " against", "1106": "cept", "1107": "ural", "1108": " Col", "1109": " show", "1110": "ood", "1111": "ground", "1112": "ague", "1113": " GA", "1114": "\u00e0\u00b8", "1115": " series", "1116": "sk", "1117": " report", "1118": " Is", "1119": " bro", "1120": "ball", "1121": " Tru", "1122": "ments", "1123": " exp", "1124": " like", "1125": " success", "1126": "ides", "1127": " said", "1128": "ctions", "1129": "ivers", "1130": "ution", "1131": " though", "1132": "ash", "1133": " ann", "1134": " John", "1135": " any", "1136": " War", "1137": " occ", "1138": " own", "1139": "pped", "1140": " Amer", "1141": " cult", "1142": "iva", "1143": " although", "1144": "urt", "1145": " small", "1146": "omin", "1147": " describ", "1148": " November", "1149": " early", "1150": " project", "1151": "ince", "1152": " Be", "1153": "gg", "1154": "ract", "1155": " Shiva", "1156": " NBA", "1157": " mil", "1158": " set", "1159": " iss", "1160": "aged", "1161": " head", "1162": "amed", "1163": "vent", "1164": " care", "1165": "iety", "1166": " result", "1167": " op", "1168": " Comm", "1169": " five", "1170": " pop", "1171": " partic", "1172": "12", "1173": "eek", "1174": " group", "1175": "field", "1176": " same", "1177": "ible", "1178": "ative", "1179": " hal", "1180": " ins", "1181": " Ant", "1182": "oard", "1183": " Me", "1184": " coin", "1185": " Air", "1186": " Truj", "1187": " Trujill", "1188": " down", "1189": " book", "1190": "oman", "1191": "wards", "1192": " played", "1193": " did", "1194": " dam", "1195": " $", "1196": " called", "1197": " history", "1198": " India", "1199": "ane", "1200": " Trujillo", "1201": " excav", "1202": " Wh", "1203": "ven", "1204": "ined", "1205": " support", "1206": " represent", "1207": "ross", "1208": " power", "1209": " %", "1210": "ually", "1211": " each", "1212": " comple", "1213": " start", "1214": " aut", "1215": "gra", "1216": " belie", "1217": " /", "1218": "17", "1219": " fam", "1220": " Oct", "1221": " October", "1222": "ogra", "1223": "195", "1224": " Am", "1225": " Val", "1226": "ird", "1227": "cess", "1228": " port", "1229": "ung", "1230": " single", "1231": "uch", "1232": " Rock", "1233": "ium", "1234": " along", "1235": "ility", "1236": " gu", "1237": " dem", "1238": " Aust", "1239": " million", "1240": " King", "1241": " Jan", "1242": "ained", "1243": "quad", "1244": " top", "1245": "ording", "1246": "overnment", "1247": "uc", "1248": "ones", "1249": " Car", "1250": " direct", "1251": " appro", "1252": "avy", "1253": " ran", "1254": " following", "1255": " took", "1256": "orm", "1257": "une", "1258": "tend", "1259": " left", "1260": "ram", "1261": " giv", "1262": "ause", "1263": "stit", "1264": " hand", "1265": " ed", "1266": " tur", "1267": "iod", "1268": "ilt", "1269": " included", "1270": " North", "1271": " vi", "1272": "ideo", "1273": " received", "1274": " character", "1275": " activ", "1276": " we", "1277": " place", "1278": " eff", "1279": " stru", "1280": " world", "1281": "ank", "1282": " use", "1283": "197", "1284": "ement", "1285": " home", "1286": " you", "1287": "ajor", "1288": " position", "1289": "aced", "1290": " Min", "1291": " build", "1292": " six", "1293": " people", "1294": " career", "1295": "mber", "1296": "ots", "1297": "leet", "1298": "\u00c3\u00ad", "1299": " Sap", "1300": " pur", "1301": "uss", "1302": "umb", "1303": " infl", "1304": " described", "1305": "enn", "1306": "cer", "1307": " dollar", "1308": " perform", "1309": "ret", "1310": " dist", "1311": " Sc", "1312": " dest", "1313": " consid", "1314": "oun", "1315": "useum", "1316": "abl", "1317": " ships", "1318": " Saprang", "1319": "lay", "1320": " release", "1321": "ified", "1322": "13", "1323": " prop", "1324": " constru", "1325": "isted", "1326": " Apr", "1327": " April", "1328": " life", "1329": " increas", "1330": " States", "1331": "ll", "1332": " Mark", "1333": " Ph", "1334": " Dece", "1335": " Rout", "1336": "itary", "1337": "uro", "1338": "xt", "1339": " addition", "1340": "ove", "1341": "ax", "1342": "ively", "1343": " US", "1344": "con", "1345": " December", "1346": "ina", "1347": " open", "1348": " person", "1349": " No", "1350": "sen", "1351": " prof", "1352": " half", "1353": " count", "1354": "ards", "1355": " child", "1356": " school", "1357": " mat", "1358": " games", "1359": " differ", "1360": " tem", "1361": "self", "1362": "ately", "1363": "ring", "1364": " period", "1365": " South", "1366": " World", "1367": " away", "1368": "ins", "1369": " Sb", "1370": " stand", "1371": " Char", "1372": "els", "1373": " rest", "1374": " They", "1375": "ink", "1376": "used", "1377": " my", "1378": " post", "1379": " within", "1380": "ase", "1381": " review", "1382": " Aug", "1383": " August", "1384": " establ", "1385": "read", "1386": "ently", "1387": " week", "1388": " trad", "1389": " larg", "1390": "soci", "1391": "ann", "1392": "rote", "1393": " human", "1394": " sl", "1395": "ado", "1396": " Route", "1397": " perfor", "1398": "mb", "1399": "uary", "1400": " control", "1401": "ially", "1402": "ried", "1403": " around", "1404": "roy", "1405": " track", "1406": " site", "1407": " name", "1408": " another", "1409": "omen", "1410": " organ", "1411": " fig", "1412": "ria", "1413": " miss", "1414": "ared", "1415": "ene", "1416": " just", "1417": " mod", "1418": " eng", "1419": " produced", "1420": " June", "1421": "11", "1422": "rew", "1423": "hern", "1424": "ulf", "1425": " Fran", "1426": " Lond", "1427": " London", "1428": " Bull", "1429": "quadron", "1430": "lect", "1431": " Eng", "1432": "ached", "1433": "hest", "1434": " chart", "1435": "empt", "1436": "ister", "1437": "rop", "1438": " influ", "1439": "aves", "1440": "oring", "1441": "side", "1442": "vious", "1443": " those", "1444": "iqu", "1445": " hel", "1446": " General", "1447": " You", "1448": "any", "1449": " came", "1450": "ically", "1451": "eter", "1452": " even", "1453": "ograph", "1454": " right", "1455": " ever", "1456": " monum", "1457": " Markgra", "1458": " Markgraf", "1459": " Furt", "1460": " Furtado", "1461": " third", "1462": " There", "1463": " During", "1464": "ouse", "1465": " much", "1466": " Sept", "1467": " September", "1468": " prov", "1469": "186", "1470": "ature", "1471": " sit", "1472": " attempt", "1473": " published", "1474": "196", "1475": " Archaeolog", "1476": " Shol", "1477": " Sholay", "1478": " Euro", "1479": "ales", "1480": "embers", "1481": "aving", "1482": " points", "1483": " sk", "1484": " great", "1485": " order", "1486": " prot", "1487": " present", "1488": " Ne", "1489": " Fl", "1490": " gener", "1491": " Little", "1492": "ander", "1493": " named", "1494": " pass", "1495": "14", "1496": " Indian", "1497": " Te", "1498": " Jack", "1499": "urther", "1500": "ford", "1501": " family", "1502": " often", "1503": "ski", "1504": " role", "1505": "uted", "1506": " stated", "1507": " invol", "1508": " particular", "1509": " final", "1510": " tw", "1511": " held", "1512": " month", "1513": "arly", "1514": " wrote", "1515": "amb", "1516": "mercial", "1517": "reak", "1518": " Roman", "1519": "irc", "1520": " import", "1521": " performan", "1522": " Ali", "1523": " Valky", "1524": " previous", "1525": "omet", "1526": " pres", "1527": " major", "1528": "orp", "1529": " UK", "1530": "ront", "1531": " land", "1532": "ead", "1533": "ple", "1534": " American", "1535": "ris", "1536": " beh", "1537": "25", "1538": " West", "1539": " soc", "1540": " goal", "1541": " sugg", "1542": " suggest", "1543": " join", "1544": "hen", "1545": "lying", "1546": " repl", "1547": " sim", "1548": "ged", "1549": " unt", "1550": " requ", "1551": " since", "1552": " built", "1553": " because", "1554": " may", "1555": " band", "1556": " Ge", "1557": " Europe", "1558": " deb", "1559": " seen", "1560": "pping", "1561": " led", "1562": "AA", "1563": " prim", "1564": "ader", "1565": "arge", "1566": " original", "1567": " gr", "1568": " members", "1569": " lim", "1570": " resp", "1571": "ope", "1572": " vis", "1573": "off", "1574": " auth", "1575": " relig", "1576": " cover", "1577": "ray", "1578": " Ju", "1579": " aer", "1580": " January", "1581": " real", "1582": " returned", "1583": " different", "1584": " Army", "1585": " until", "1586": "oss", "1587": " last", "1588": " ref", "1589": "pite", "1590": " promot", "1591": " noted", "1592": "ission", "1593": "med", "1594": " km", "1595": " City", "1596": " gl", "1597": " Can", "1598": "ention", "1599": " term", "1600": " However", "1601": " press", "1602": "dom", "1603": "ez", "1604": " large", "1605": "stem", "1606": " throughout", "1607": " based", "1608": " Or", "1609": " fem", "1610": " init", "1611": "eng", "1612": "ley", "1613": "ox", "1614": "ages", "1615": " mark", "1616": " north", "1617": " area", "1618": " scored", "1619": " train", "1620": " Red", "1621": " star", "1622": " Britain", "1623": "aton", "1624": " Valkyria", "1625": "ploy", "1626": " stat", "1627": " due", "1628": " tri", "1629": "ble", "1630": " Music", "1631": " Feb", "1632": " Febru", "1633": " February", "1634": " songs", "1635": "ery", "1636": " [", "1637": " ]", "1638": " obs", "1639": " dra", "1640": "ator", "1641": "oyal", "1642": " opp", "1643": " circ", "1644": " polit", "1645": " pil", "1646": " Eaton", "1647": " Bulls", "1648": " military", "1649": " Sec", "1650": " operations", "1651": " player", "1652": "ott", "1653": " adv", "1654": " city", "1655": " way", "1656": " what", "1657": " recorded", "1658": " det", "1659": " His", "1660": " del", "1661": " equ", "1662": " south", "1663": " now", "1664": "16", "1665": " won", "1666": " death", "1667": "ls", "1668": " ft", "1669": "arrow", "1670": "21", "1671": " line", "1672": "ep", "1673": " Fin", "1674": "arian", "1675": " commun", "1676": "vin", "1677": " sound", "1678": "osa", "1679": "oviet", "1680": "\u00c5\u0082", "1681": "vol", "1682": " sold", "1683": " list", "1684": " best", "1685": " foot", "1686": "cy", "1687": "af", "1688": "atory", "1689": " further", "1690": " given", "1691": "ats", "1692": " commercial", "1693": " Mc", "1694": "omb", "1695": "action", "1696": " divine", "1697": " Soviet", "1698": " system", "1699": " will", "1700": " ty", "1701": " make", "1702": "ves", "1703": " Pro", "1704": " Ex", "1705": " government", "1706": " various", "1707": "ner", "1708": " father", "1709": "aim", "1710": " And", "1711": " late", "1712": " Par", "1713": " Des", "1714": " Univers", "1715": "ruis", "1716": " local", "1717": "ask", "1718": " red", "1719": " considered", "1720": "arker", "1721": "aken", "1722": " Blue", "1723": " poss", "1724": "lev", "1725": " club", "1726": "get", "1727": " March", "1728": " Long", "1729": "abor", "1730": " str", "1731": "\u00c3\u00a9", "1732": "ica", "1733": " Kingdom", "1734": "hips", "1735": " Stra", "1736": " Clark", "1737": " ep", "1738": " if", "1739": "app", "1740": " himself", "1741": " short", "1742": "chan", "1743": " sty", "1744": " Black", "1745": " ext", "1746": " sent", "1747": " signed", "1748": "rid", "1749": " women", "1750": " cour", "1751": " profess", "1752": "ices", "1753": " conc", "1754": " Although", "1755": " contract", "1756": " rock", "1757": " Squadron", "1758": "ny", "1759": " underground", "1760": " run", "1761": "apt", "1762": " help", "1763": " With", "1764": " award", "1765": " destroy", "1766": " es", "1767": " production", "1768": "ourn", "1769": " pat", "1770": " continued", "1771": " critic", "1772": "uals", "1773": " reported", "1774": "nder", "1775": " allow", "1776": " east", "1777": " Rec", "1778": "50", "1779": " Gu", "1780": " Columb", "1781": " National", "1782": "isc", "1783": " water", "1784": "ael", "1785": "ants", "1786": " national", "1787": " These", "1788": " former", "1789": "adem", "1790": "astern", "1791": " Cull", "1792": " Cold", "1793": " developed", "1794": "estern", "1795": " forces", "1796": "ption", "1797": " without", "1798": " fore", "1799": " Mar", "1800": "ives", "1801": " light", "1802": "sequ", "1803": " building", "1804": "eder", "1805": "ivil", "1806": " author", "1807": "24", "1808": "iron", "1809": " among", "1810": " country", "1811": " guns", "1812": " fun", "1813": " moved", "1814": " hour", "1815": "HL", "1816": " appoin", "1817": " syn", "1818": " excavation", "1819": " Clarkson", "1820": "icles", "1821": " take", "1822": "ulation", "1823": " attack", "1824": " never", "1825": " times", "1826": " conf", "1827": " popular", "1828": " vers", "1829": "ences", "1830": "istic", "1831": "ination", "1832": " el", "1833": " observ", "1834": "der", "1835": "olid", "1836": "yl", "1837": " scoring", "1838": " voc", "1839": "ke", "1840": " Cullen", "1841": "ples", "1842": " tradition", "1843": " Jew", "1844": " Poland", "1845": "ithic", "1846": " Bat", "1847": " Med", "1848": "iving", "1849": " hig", "1850": " exper", "1851": "hod", "1852": "ital", "1853": "gin", "1854": " next", "1855": "ody", "1856": " By", "1857": "hib", "1858": "ne", "1859": " point", "1860": " activities", "1861": " Barker", "1862": " mid", "1863": " la", "1864": " species", "1865": " Ac", "1866": " League", "1867": "edy", "1868": "gal", "1869": "anta", "1870": "rench", "1871": " metal", "1872": " Mader", "1873": "ferred", "1874": " Em", "1875": "itted", "1876": " low", "1877": " fre", "1878": "au", "1879": " become", "1880": "ving", "1881": " special", "1882": " expl", "1883": " cert", "1884": " ide", "1885": " fire", "1886": "AS", "1887": "ara", "1888": " attend", "1889": " still", "1890": "ata", "1891": " cut", "1892": " tit", "1893": " construction", "1894": " hold", "1895": " behind", "1896": " colle", "1897": "part", "1898": " med", "1899": "ords", "1900": "aries", "1901": "ief", "1902": " century", "1903": "ling", "1904": " subm", "1905": " level", "1906": "ont", "1907": " FI", "1908": "100", "1909": "layer", "1910": "sp", "1911": " important", "1912": " occup", "1913": " Fern", "1914": " Fernand", "1915": " French", "1916": " fleet", "1917": " Madero", "1918": "stitute", "1919": " III", "1920": "pend", "1921": " events", "1922": " however", "1923": " mater", "1924": " live", "1925": "23", "1926": " Acc", "1927": "enced", "1928": "senal", "1929": " should", "1930": " effect", "1931": " side", "1932": "ublic", "1933": "iter", "1934": "ness", "1935": "ize", "1936": " Jackets", "1937": "ering", "1938": " believed", "1939": " Ital", "1940": "board", "1941": " struck", "1942": " Best", "1943": "odrom", "1944": " discover", "1945": " caves", "1946": " Chron", "1947": "aps", "1948": " camp", "1949": " battle", "1950": " successful", "1951": " kill", "1952": " written", "1953": " event", "1954": " tro", "1955": " val", "1956": " police", "1957": " signific", "1958": " histor", "1959": " compet", "1960": "ivate", "1961": " Pr", "1962": "line", "1963": " Mich", "1964": "ival", "1965": " Fernandez", "1966": "ogue", "1967": "viation", "1968": " Coldrum", "1969": " tomb", "1970": "play", "1971": "oad", "1972": " sw", "1973": "hel", "1974": "aff", "1975": " material", "1976": "oor", "1977": "atter", "1978": "ising", "1979": "iting", "1980": "ensive", "1981": "levision", "1982": "ham", "1983": " cal", "1984": "ient", "1985": " shot", "1986": "let", "1987": " remained", "1988": " earl", "1989": " fund", "1990": " Austral", "1991": "bar", "1992": "vey", "1993": " across", "1994": " reached", "1995": "arm", "1996": " Royal", "1997": "yd", "1998": " performance", "1999": " Awards", "2000": "ians", "2001": "rapped", "2002": " sulf", "2003": " regime", "2004": " Antimony", "2005": " video", "2006": " story", "2007": "ivid", "2008": "ither", "2009": " female", "2010": " interest", "2011": "idence", "2012": " suff", "2013": " creat", "2014": "par", "2015": "ilar", "2016": " ..", "2017": " nov", "2018": "ances", "2019": " James", "2020": "rack", "2021": "ked", "2022": " coll", "2023": " mar", "2024": "iber", "2025": "iver", "2026": "rict", "2027": "oat", "2028": " less", "2029": "ef", "2030": "sociation", "2031": " educ", "2032": " Her", "2033": " claim", "2034": " Early", "2035": "riend", "2036": " fac", "2037": " Columbus", "2038": " Phil", "2039": "ports", "2040": " appointed", "2041": " July", "2042": " damage", "2043": " viol", "2044": " albums", "2045": " coins", "2046": " archaeological", "2047": " Chronicles", "2048": " having", "2049": " somet", "2050": " den", "2051": "elt", "2052": " ...", "2053": " leading", "2054": " put", "2055": " Some", "2056": " Two", "2057": "rated", "2058": " men", "2059": "ably", "2060": " days", "2061": " Gre", "2062": " performed", "2063": " round", "2064": " Rep", "2065": "cing", "2066": " few", "2067": " wind", "2068": " wife", "2069": " Soc", "2070": "ken", "2071": "sh", "2072": " feet", "2073": "iam", "2074": "ape", "2075": " sex", "2076": " deal", "2077": " league", "2078": " training", "2079": "ference", "2080": " University", "2081": " Bill", "2082": " writing", "2083": " mm", "2084": "ounds", "2085": " Carol", "2086": "aster", "2087": " flight", "2088": "iding", "2089": " monument", "2090": "etball", "2091": " Wrapped", "2092": " archaeology", "2093": "com", "2094": "akes", "2095": "volution", "2096": " individ", "2097": " cap", "2098": " created", "2099": " need", "2100": " av", "2101": " goals", "2102": " damaged", "2103": " established", "2104": " officers", "2105": "aper", "2106": " Union", "2107": " Bro", "2108": " fav", "2109": "oliday", "2110": " tour", "2111": " shr", "2112": " Island", "2113": " least", "2114": " NHL", "2115": "vers", "2116": " appeared", "2117": "atic", "2118": " Year", "2119": " relations", "2120": "40", "2121": " sol", "2122": " flying", "2123": " Lo", "2124": "ico", "2125": " reaction", "2126": "rania", "2127": " Jewish", "2128": " Institute", "2129": "aled", "2130": "fic", "2131": " limited", "2132": "ops", "2133": " cr", "2134": "imately", "2135": " When", "2136": "ought", "2137": " novel", "2138": " According", "2139": " Ark", "2140": " museum", "2141": " old", "2142": " central", "2143": " front", "2144": "ior", "2145": " instead", "2146": "ended", "2147": "ec", "2148": "ressed", "2149": " Cent", "2150": " \u00c2", "2151": "lear", "2152": " cou", "2153": " Canad", "2154": " aver", "2155": " host", "2156": "rand", "2157": " followed", "2158": " say", "2159": "iness", "2160": " decl", "2161": " bur", "2162": " aerodrom", "2163": "aven", "2164": " While", "2165": " return", "2166": " er", "2167": "iers", "2168": " ter", "2169": " One", "2170": " comb", "2171": " gave", "2172": "elling", "2173": "oon", "2174": "tal", "2175": " strong", "2176": " Fair", "2177": " cor", "2178": " Sur", "2179": " Society", "2180": " children", "2181": "outhern", "2182": "chol", "2183": " phot", "2184": " Tim", "2185": " remains", "2186": " cur", "2187": " political", "2188": " mix", "2189": " shown", "2190": " Atl", "2191": " Thak", "2192": "tles", "2193": "dess", "2194": " appl", "2195": "nyi", "2196": " Urania", "2197": " cave", "2198": "abbar", "2199": "olithic", "2200": " archaeologist", "2201": " par", "2202": " development", "2203": " making", "2204": " players", "2205": "ories", "2206": " very", "2207": "igned", "2208": "ways", "2209": " Ab", "2210": "ience", "2211": "utes", "2212": " see", "2213": " young", "2214": " mem", "2215": " Pe", "2216": "ected", "2217": " others", "2218": "ened", "2219": "ched", "2220": " agre", "2221": "int", "2222": " Navy", "2223": "ald", "2224": " schools", "2225": "by", "2226": " capt", "2227": " Gir", "2228": "ying", "2229": " estim", "2230": " fail", "2231": " Academ", "2232": " every", "2233": " version", "2234": " ste", "2235": "wood", "2236": " rad", "2237": " Video", "2238": " Finals", "2239": " common", "2240": " Port", "2241": " prog", "2242": "anted", "2243": "eep", "2244": " action", "2245": " ident", "2246": " pie", "2247": " issue", "2248": " general", "2249": " Q", "2250": " Museum", "2251": " foc", "2252": " television", "2253": " tow", "2254": "alk", "2255": " leg", "2256": " Sm", "2257": " Pres", "2258": " personal", "2259": "ipp", "2260": "60", "2261": "aval", "2262": " che", "2263": " employ", "2264": " &", "2265": " Bar", "2266": " significant", "2267": " gre", "2268": " condu", "2269": " religious", "2270": "chn", "2271": " eight", "2272": " playoff", "2273": " ten", "2274": " joined", "2275": " subsequ", "2276": " storm", "2277": " block", "2278": " primary", "2279": " br", "2280": "rz", "2281": " battles", "2282": " figure", "2283": "ctor", "2284": " submar", "2285": "amber", "2286": " Young", "2287": " bask", "2288": " characters", "2289": " using", "2290": "aining", "2291": " decided", "2292": " thought", "2293": " reve", "2294": " too", "2295": " style", "2296": " include", "2297": " insp", "2298": " purp", "2299": "me", "2300": " located", "2301": "het", "2302": " carb", "2303": " taken", "2304": "rought", "2305": " hop", "2306": " ball", "2307": " pain", "2308": "rior", "2309": "ches", "2310": " add", "2311": " station", "2312": "ington", "2313": " fif", "2314": " Ed", "2315": " little", "2316": " friend", "2317": " accom", "2318": " closed", "2319": " Gl", "2320": " mount", "2321": " match", "2322": " cm", "2323": " gen", "2324": " range", "2325": " region", "2326": " trade", "2327": " free", "2328": " shoot", "2329": " view", "2330": " inch", "2331": " sil", "2332": " Billboard", "2333": " Cro", "2334": " operation", "2335": "ream", "2336": " cultural", "2337": "ati", "2338": " Devin", "2339": "agogue", "2340": " FIT", "2341": " Loose", "2342": " Battle", "2343": "ilities", "2344": " aff", "2345": " exist", "2346": " becom", "2347": "anding", "2348": "rest", "2349": " similar", "2350": "ournal", "2351": "ffic", "2352": " announ", "2353": " how", "2354": " process", "2355": " started", "2356": "ha", "2357": "ole", "2358": " brought", "2359": "ridge", "2360": " draw", "2361": "osing", "2362": " School", "2363": " professional", "2364": "augh", "2365": " Blackie", "2366": "ett", "2367": "co", "2368": " Girls", "2369": " Su", "2370": "rodu", "2371": " intern", "2372": "ament", "2373": "inent", "2374": " En", "2375": "ators", "2376": " Russ", "2377": " earlier", "2378": " recording", "2379": " Dav", "2380": " accept", "2381": " went", "2382": "rag", "2383": " Sp", "2384": " indust", "2385": " Film", "2386": " Def", "2387": " cruis", "2388": " goddess", "2389": " image", "2390": " Slayer", "2391": " transport", "2392": "agre", "2393": " Ll", "2394": " Germany", "2395": "vati", "2396": " Strapping", "2397": " Ve", "2398": " Gabbar", "2399": "ansfield", "2400": " outside", "2401": " director", "2402": "itive", "2403": " occur", "2404": "ficult", "2405": "ense", "2406": "alth", "2407": "ased", "2408": " Reg", "2409": " Dar", "2410": "pper", "2411": "sel", "2412": " evidence", "2413": "cient", "2414": " begin", "2415": " full", "2416": " staff", "2417": " upon", "2418": " involved", "2419": " ly", "2420": " particularly", "2421": " Rich", "2422": "work", "2423": " sum", "2424": " self", "2425": " stone", "2426": " State", "2427": " troops", "2428": " Most", "2429": "185", "2430": " lost", "2431": "adel", "2432": "adelph", "2433": "adelphia", "2434": "partment", "2435": " above", "2436": "oted", "2437": "ration", "2438": " past", "2439": " Geor", "2440": "ogn", "2441": " Association", "2442": "enth", "2443": "44", "2444": " debut", "2445": "rent", "2446": " Michael", "2447": "reet", "2448": "van", "2449": " comedy", "2450": " Hung", "2451": " formed", "2452": " deity", "2453": " polic", "2454": " ox", "2455": " Varg", "2456": " Vargas", "2457": " Llosa", "2458": " End", "2459": " SN", "2460": " SNL", "2461": " Parvati", "2462": " features", "2463": " mult", "2464": " Game", "2465": " grow", "2466": " difficult", "2467": " minor", "2468": " Direct", "2469": " chang", "2470": "22", "2471": " loss", "2472": " impro", "2473": " despite", "2474": " felt", "2475": " cop", "2476": " Arkans", "2477": " official", "2478": " prob", "2479": " indic", "2480": " shell", "2481": "aces", "2482": " mag", "2483": "aching", "2484": " private", "2485": "elled", "2486": "ology", "2487": " recogn", "2488": " Australia", "2489": " lack", "2490": "atin", "2491": " lo", "2492": " total", "2493": " inj", "2494": " minute", "2495": "ization", "2496": " Tr", "2497": " suggested", "2498": "angu", "2499": " High", "2500": "ler", "2501": " Under", "2502": " Carolina", "2503": " films", "2504": "han", "2505": "alin", "2506": " East", "2507": " introdu", "2508": " rit", "2509": " Egyptians", "2510": " myth", "2511": " culture", "2512": "formation", "2513": " Domin", "2514": " assass", "2515": " reag", "2516": "\u00c3\u00b3", "2517": " island", "2518": "ASP", "2519": " chamber", "2520": " Lad", "2521": " basketball", "2522": " pra", "2523": "ranch", "2524": "lected", "2525": " Up", "2526": " fell", "2527": " member", "2528": " house", "2529": " force", "2530": " worked", "2531": " seven", "2532": "atch", "2533": " mor", "2534": " featured", "2535": "itions", "2536": " announced", "2537": " prin", "2538": " stri", "2539": "eh", "2540": " ill", "2541": " Tower", "2542": " Bu", "2543": " Arkansas", "2544": "28", "2545": " perm", "2546": "gen", "2547": " Per", "2548": " shows", "2549": " surround", "2550": " dev", "2551": "ography", "2552": " England", "2553": " Many", "2554": " schol", "2555": "orthern", "2556": " nature", "2557": " able", "2558": "45", "2559": " fired", "2560": " hit", "2561": " weeks", "2562": "mented", "2563": " langu", "2564": " Academy", "2565": " according", "2566": " Sing", "2567": " night", "2568": "iral", "2569": " aud", "2570": " Act", "2571": "orship", "2572": " Bh", "2573": "ele", "2574": " treat", "2575": "yn", "2576": " America", "2577": " Fleet", "2578": " holiday", "2579": " D\u00c3\u00ad", "2580": " D\u00c3\u00adaz", "2581": " Republic", "2582": " synagogue", "2583": "\u00c5\u0084", "2584": "OT", "2585": "anes", "2586": " pen", "2587": " epis", "2588": " episod", "2589": " elements", "2590": " once", "2591": "ential", "2592": " either", "2593": " heavy", "2594": " Pl", "2595": " names", "2596": " tre", "2597": "ster", "2598": " Ram", "2599": " originally", "2600": " designed", "2601": " instrum", "2602": " avail", "2603": "pects", "2604": " qual", "2605": " forms", "2606": " Will", "2607": " vol", "2608": "184", "2609": " Hist", "2610": " remaining", "2611": "ederal", "2612": " completed", "2613": " fact", "2614": "utive", "2615": " issued", "2616": " Department", "2617": " establish", "2618": " mer", "2619": " studio", "2620": " students", "2621": " instit", "2622": "ush", "2623": "imon", "2624": " Fe", "2625": " Met", "2626": " Af", "2627": " base", "2628": " close", "2629": " Man", "2630": " draft", "2631": "sec", "2632": " break", "2633": " represented", "2634": " arch", "2635": " community", "2636": " inches", "2637": " object", "2638": " Charles", "2639": " law", "2640": " fict", "2641": "istan", "2642": " whom", "2643": "usiness", "2644": " regular", "2645": "AT", "2646": " anti", "2647": " eastern", "2648": " depic", "2649": " figures", "2650": " rul", "2651": "odies", "2652": " Mon", "2653": " increasing", "2654": " Mint", "2655": " yl", "2656": " Dominican", "2657": " Zagre", "2658": " Zagreb", "2659": " Germans", "2660": " Neolithic", "2661": " stones", "2662": " Thai", "2663": " playing", "2664": " Second", "2665": " anim", "2666": "por", "2667": " typ", "2668": "urg", "2669": " command", "2670": "leg", "2671": "uk", "2672": " appearance", "2673": "lish", "2674": "29", "2675": " Light", "2676": " Government", "2677": " situ", "2678": " subject", "2679": " nearly", "2680": " placed", "2681": " Records", "2682": " born", "2683": " largely", "2684": " Adm", "2685": " \u00e2\u0080\u0099", "2686": " died", "2687": " Ele", "2688": "vert", "2689": " broken", "2690": " southern", "2691": "ison", "2692": " social", "2693": " find", "2694": "ampions", "2695": " Western", "2696": " winning", "2697": " might", "2698": " dead", "2699": "onn", "2700": "medi", "2701": "istics", "2702": " sun", "2703": " silver", "2704": " twent", "2705": "orus", "2706": "ulated", "2707": " Atlanta", "2708": " crew", "2709": "tain", "2710": " bomb", "2711": " lab", "2712": " ru", "2713": " case", "2714": " WASP", "2715": "anda", "2716": " FITs", "2717": " Stansfield", "2718": " Archaeology", "2719": " theme", "2720": " carried", "2721": " turn", "2722": " does", "2723": " effort", "2724": " esc", "2725": " remov", "2726": " initially", "2727": " modern", "2728": "ibility", "2729": " pot", "2730": "27", "2731": " English", "2732": "500", "2733": " sto", "2734": " possible", "2735": "ana", "2736": " respect", "2737": " tower", "2738": " arms", "2739": " wid", "2740": " Smith", "2741": " civil", "2742": " forced", "2743": " agreed", "2744": "35", "2745": "ote", "2746": " River", "2747": "aign", "2748": "rain", "2749": " San", "2750": " ren", "2751": " condition", "2752": " meet", "2753": " Great", "2754": " education", "2755": " books", "2756": " mother", "2757": " fru", "2758": " taking", "2759": " techn", "2760": "aly", "2761": " football", "2762": " greater", "2763": " toget", "2764": " together", "2765": " surv", "2766": " reb", "2767": " Philadelphia", "2768": " highest", "2769": "arily", "2770": "ication", "2771": " fourth", "2772": " Conference", "2773": "ateg", "2774": "80", "2775": " pow", "2776": " pilots", "2777": "ises", "2778": " Other", "2779": " env", "2780": " saw", "2781": " We", "2782": "oid", "2783": " carbon", "2784": "acre", "2785": " dollars", "2786": " coup", "2787": " RAA", "2788": " RAAF", "2789": "urst", "2790": " Archaeological", "2791": " MV", "2792": " MVP", "2793": "pg", "2794": "\u00c5\u0082aw", "2795": " Veer", "2796": " Veeru", "2797": " Sen", "2798": " nation", "2799": " Im", "2800": " opening", "2801": " pan", "2802": "less", "2803": " vict", "2804": " certain", "2805": " defe", "2806": " super", "2807": " beginning", "2808": " look", "2809": " interview", "2810": " body", "2811": " reason", "2812": " lyric", "2813": " arr", "2814": " detail", "2815": " west", "2816": "azine", "2817": " good", "2818": "31", "2819": " But", "2820": " Art", "2821": " President", "2822": "ze", "2823": "rif", "2824": " soon", "2825": " larger", "2826": "ago", "2827": " hon", "2828": "itors", "2829": "urch", "2830": "dle", "2831": " My", "2832": " dou", "2833": " focus", "2834": " ey", "2835": " lif", "2836": " adm", "2837": " Foot", "2838": " access", "2839": "roph", "2840": " estimated", "2841": "ains", "2842": "ceed", "2843": " pick", "2844": " Star", "2845": " manag", "2846": " fifth", "2847": " minutes", "2848": " road", "2849": " Despite", "2850": " depart", "2851": " conn", "2852": " cred", "2853": " BC", "2854": "oph", "2855": " metres", "2856": " subsequently", "2857": " Care", "2858": " David", "2859": " redu", "2860": " Charl", "2861": " theat", "2862": " search", "2863": " relationship", "2864": " Kar", "2865": " supported", "2866": " Hungarian", "2867": "isters", "2868": " temples", "2869": " son", "2870": " abs", "2871": "ude", "2872": " pract", "2873": " producer", "2874": " Zr", "2875": "zy", "2876": " Director", "2877": "ulpt", "2878": " Mex", "2879": " Play", "2880": " additional", "2881": " To", "2882": "ributed", "2883": "ks", "2884": " works", "2885": "epend", "2886": " killed", "2887": " wanted", "2888": "chie", "2889": "pected", "2890": " respons", "2891": " available", "2892": " generally", "2893": " writer", "2894": " -", "2895": " dire", "2896": " artists", "2897": " eventually", "2898": " served", "2899": " quick", "2900": " That", "2901": " miles", "2902": " attempted", "2903": "ibr", "2904": " favor", "2905": " Chic", "2906": " Chicago", "2907": "ym", "2908": " collabor", "2909": " sister", "2910": " Follow", "2911": " Following", "2912": " conducted", "2913": " sometimes", "2914": "osp", "2915": " nat", "2916": " influenced", "2917": "aut", "2918": "conom", "2919": "ological", "2920": " threat", "2921": " terms", "2922": " prior", "2923": " protest", "2924": "ille", "2925": " Ag", "2926": " Italian", "2927": " archit", "2928": " commission", "2929": " language", "2930": " Pa", "2931": " Gro", "2932": " test", "2933": " highway", "2934": " Secret", "2935": "att", "2936": " Commander", "2937": " frag", "2938": " mass", "2939": " ens", "2940": " Award", "2941": " reviews", "2942": " sat", "2943": " offer", "2944": " CAT", "2945": "MS", "2946": " Austro", "2947": " heav", "2948": "ironment", "2949": " vill", "2950": "ample", "2951": "asion", "2952": " monuments", "2953": " shrine", "2954": " aerodromes", "2955": " European", "2956": " pilot", "2957": " Zr\u00c3\u00ad", "2958": " Zr\u00c3\u00adnyi", "2959": " sal", "2960": " sculpt", "2961": " president", "2962": "ellig", "2963": " Naz", "2964": "aganda", "2965": "ska", "2966": " barrow", "2967": " Medway", "2968": " exit", "2969": "\u00e3\u0081", "2970": "ga", "2971": " grad", "2972": " field", "2973": " get", "2974": " Pers", "2975": " entire", "2976": " method", "2977": "bers", "2978": " soldiers", "2979": "ability", "2980": " face", "2981": " proposed", "2982": " revolution", "2983": " required", "2984": " amount", "2985": "ements", "2986": " achie", "2987": "ify", "2988": " guit", "2989": "nthes", "2990": " lyrics", "2991": "clus", "2992": " neg", "2993": " provided", "2994": " scene", "2995": " planned", "2996": " Road", "2997": " Flower", "2998": " Arsenal", "2999": ".S", "3000": " Club", "3001": "overnor", "3002": " wall", "3003": " elect", "3004": " Har", "3005": "iment", "3006": " necess", "3007": " consisted", "3008": " alm", "3009": " campaign", "3010": "iths", "3011": "ange", "3012": " Post", "3013": " naval", "3014": " months", "3015": "day", "3016": " finally", "3017": " depict", "3018": " sevent", "3019": "oul", "3020": " sac", "3021": " attention", "3022": " Bur", "3023": " House", "3024": " Wales", "3025": "orial", "3026": " Gamb", "3027": " Afric", "3028": " particip", "3029": " Football", "3030": " Mor", "3031": "ili", "3032": " below", "3033": " individuals", "3034": " uns", "3035": " size", "3036": " sexual", "3037": "alling", "3038": " Oper", "3039": "inated", "3040": " architect", "3041": " greatest", "3042": " twenty", "3043": " controlled", "3044": " torp", "3045": " torped", "3046": " torpedo", "3047": " Admiral", "3048": " Penn", "3049": " nomin", "3050": " cer", "3051": " cerem", "3052": " univers", "3053": " Canada", "3054": " Croat", "3055": " religion", "3056": " creation", "3057": " arg", "3058": " regard", "3059": " example", "3060": " Heaven", "3061": " aviation", "3062": "70", "3063": " radio", "3064": " prem", "3065": "ourt", "3066": "win", "3067": " Pak", "3068": " Pakistan", "3069": " copies", "3070": "urric", "3071": "urricane", "3072": " Jai", "3073": " Cal", "3074": " Ra", "3075": "hi", "3076": " approach", "3077": " nine", "3078": " always", "3079": " awarded", "3080": " numbers", "3081": " Mil", "3082": " mean", "3083": " officer", "3084": " destroyed", "3085": " mostly", "3086": " territ", "3087": "selves", "3088": " Max", "3089": "king", "3090": " respon", "3091": " response", "3092": " engine", "3093": " piece", "3094": " ending", "3095": " working", "3096": " journal", "3097": " People", "3098": " clos", "3099": " Mag", "3100": " highly", "3101": "acy", "3102": "189", "3103": " commander", "3104": " request", "3105": " newly", "3106": " ordered", "3107": " exec", "3108": " proper", "3109": " batter", "3110": " read", "3111": " almost", "3112": " mach", "3113": " opened", "3114": " iron", "3115": " know", "3116": " react", "3117": " continue", "3118": " dr", "3119": " exhib", "3120": "eth", "3121": "ously", "3122": " liter", "3123": " coast", "3124": "cent", "3125": " society", "3126": " El", "3127": " Ste", "3128": " laun", "3129": "allow", "3130": " econom", "3131": " nuc", "3132": " study", "3133": "anti", "3134": "rate", "3135": " thus", "3136": " replaced", "3137": " seasons", "3138": " consec", "3139": "val", "3140": "ishing", "3141": " Jul", "3142": " mot", "3143": " phys", "3144": " di", "3145": " contr", "3146": " hill", "3147": " vocals", "3148": " Bob", "3149": " newsp", "3150": "88", "3151": " winds", "3152": " demon", "3153": " ground", "3154": "inem", "3155": " business", "3156": " Fer", "3157": " far", "3158": " battleships", "3159": " symb", "3160": " symbol", "3161": " formation", "3162": "ounter", "3163": "la", "3164": " CAA", "3165": " fung", "3166": " Longacre", "3167": " Zap", "3168": " solo", "3169": "eway", "3170": " excavations", "3171": "usz", "3172": " Exeter", "3173": "osaur", "3174": " pred", "3175": " critics", "3176": " franch", "3177": " divided", "3178": " whose", "3179": " fight", "3180": " themselves", "3181": "fact", "3182": " ow", "3183": " separ", "3184": " finished", "3185": " parts", "3186": "orpor", "3187": " mus", "3188": " aspects", "3189": "enes", "3190": " purch", "3191": " title", "3192": "omm", "3193": " Civil", "3194": " federal", "3195": " transferred", "3196": " ult", "3197": " asked", "3198": " prevent", "3199": " Conf", "3200": " probably", "3201": " turned", "3202": " prep", "3203": " paper", "3204": " pair", "3205": " display", "3206": " suffered", "3207": "don", "3208": "iest", "3209": " Fairies", "3210": " Sim", "3211": " Ang", "3212": "190", "3213": " entered", "3214": "arked", "3215": "uth", "3216": "hers", "3217": "ps", "3218": " things", "3219": "180", "3220": " Prom", "3221": " Kn", "3222": " Way", "3223": " Cup", "3224": " hours", "3225": " Another", "3226": " course", "3227": " mask", "3228": " plain", "3229": "ype", "3230": " male", "3231": " lik", "3232": " broad", "3233": " caused", "3234": " wor", "3235": " consecutive", "3236": "iring", "3237": " Short", "3238": " Div", "3239": "bs", "3240": "itte", "3241": "ittee", "3242": " notes", "3243": " Br", "3244": " cas", "3245": "reek", "3246": " acting", "3247": "olly", "3248": " age", "3249": " industry", "3250": " critical", "3251": "azz", "3252": " ended", "3253": " flood", "3254": "uri", "3255": "erry", "3256": " Erz", "3257": " Erzher", "3258": " Erzherz", "3259": " Erzherzog", "3260": " Ser", "3261": " belief", "3262": " groups", "3263": " Amun", "3264": "xts", "3265": " cat", "3266": " town", "3267": "ger", "3268": " type", "3269": "thing", "3270": " increase", "3271": " Survey", "3272": " Wars", "3273": " reagents", "3274": " Goat", "3275": " loan", "3276": " Kra", "3277": " Stones", "3278": "galiths", "3279": " Timb", "3280": " Timbal", "3281": " Timbaland", "3282": "ript", "3283": " adapt", "3284": " franchise", "3285": " told", "3286": " specific", "3287": " link", "3288": " woman", "3289": " keep", "3290": " bene", "3291": "ximately", "3292": " tru", "3293": " poly", "3294": " removed", "3295": "blem", "3296": " bass", "3297": " constructed", "3298": " tracks", "3299": " revealed", "3300": " plans", "3301": " non", "3302": " summer", "3303": " inspired", "3304": " rese", "3305": " Build", "3306": " History", "3307": "den", "3308": " arsenal", "3309": " hands", "3310": " except", "3311": " subst", "3312": " repair", "3313": " inf", "3314": "tained", "3315": "rick", "3316": " door", "3317": " entran", "3318": "188", "3319": " money", "3320": " Later", "3321": " Child", "3322": "arent", "3323": " kind", "3324": " friends", "3325": " retired", "3326": " planning", "3327": " influence", "3328": " Sal", "3329": "ampionship", "3330": " associ", "3331": " Latin", "3332": " marked", "3333": " William", "3334": " meas", "3335": " becoming", "3336": " variety", "3337": " resulted", "3338": " Ass", "3339": "eman", "3340": " helped", "3341": " discuss", "3342": " double", "3343": " Johnson", "3344": "76", "3345": " +", "3346": "II", "3347": "ification", "3348": "uous", "3349": " Bet", "3350": " brother", "3351": " hard", "3352": " Penns", "3353": " Pennsyl", "3354": " Pennsylvan", "3355": " Singh", "3356": " date", "3357": " shooting", "3358": " Thakur", "3359": "ership", "3360": " concer", "3361": " exam", "3362": " introduced", "3363": " itself", "3364": " wing", "3365": " label", "3366": " Frank", "3367": " Eleph", "3368": " temple", "3369": " conclud", "3370": " Pet", "3371": " vocal", "3372": " think", "3373": "track", "3374": " lic", "3375": " standards", "3376": " assassination", "3377": "xis", "3378": "ems", "3379": " Mexico", "3380": " Zapata", "3381": " fictional", "3382": "vis", "3383": "oys", "3384": " hurricane", "3385": " TOT", "3386": " compounds", "3387": "eless", "3388": "rying", "3389": " route", "3390": " selected", "3391": " units", "3392": " higher", "3393": " related", "3394": "hing", "3395": " happ", "3396": "ique", "3397": " dict", "3398": "arn", "3399": "pecial", "3400": " move", "3401": "anc", "3402": " army", "3403": " consist", "3404": " u", "3405": " arrest", "3406": " towards", "3407": " offered", "3408": " armed", "3409": " come", "3410": " majority", "3411": "gr", "3412": " problem", "3413": " guitar", "3414": " featuring", "3415": " lower", "3416": "acing", "3417": "ycl", "3418": " standing", "3419": "emed", "3420": " X", "3421": " extend", "3422": " research", "3423": "pre", "3424": " Rober", "3425": " increased", "3426": "isl", "3427": " quar", "3428": "rison", "3429": " intended", "3430": "emble", "3431": " emer", "3432": " withd", "3433": " allowed", "3434": " saf", "3435": " service", "3436": " labor", "3437": " married", "3438": " surrounding", "3439": "oses", "3440": "ression", "3441": " Center", "3442": " Book", "3443": " claimed", "3444": " daugh", "3445": " competition", "3446": " Hill", "3447": " cost", "3448": "arr", "3449": " ma", "3450": "oice", "3451": "utions", "3452": " Times", "3453": " Sw", "3454": " Gambia", "3455": " international", "3456": " initial", "3457": " wide", "3458": "aria", "3459": " Co", "3460": " failed", "3461": " More", "3462": " program", "3463": "of", "3464": " current", "3465": " Carey", "3466": " Sever", "3467": "ids", "3468": "head", "3469": " armor", "3470": " occupied", "3471": "ollywood", "3472": " du", "3473": " Gold", "3474": " Sl", "3475": " Team", "3476": " saying", "3477": " SMS", "3478": "din", "3479": "\u00c3\u00a1", "3480": "urk", "3481": " humans", "3482": " texts", "3483": " environment", "3484": " states", "3485": " creator", "3486": " promoted", "3487": " sky", "3488": "hb", "3489": " wides", "3490": " vess", "3491": " performances", "3492": " glid", "3493": " engaged", "3494": " sites", "3495": "ument", "3496": "90", "3497": " Bow", "3498": "olk", "3499": "unt", "3500": "elligence", "3501": " Age", "3502": " Street", "3503": " ?", "3504": " archaeologists", "3505": " Ao", "3506": " AoT", "3507": " Jap", "3508": " Gall", "3509": "pan", "3510": " black", "3511": " positive", "3512": " praised", "3513": " directly", "3514": " bo", "3515": " acqu", "3516": " weap", "3517": "itch", "3518": " capital", "3519": " shortly", "3520": " approximately", "3521": " idea", "3522": " struct", "3523": " synthes", "3524": " owned", "3525": " overall", "3526": "amer", "3527": " issues", "3528": "be", "3529": " episode", "3530": " appearances", "3531": " Building", "3532": " Park", "3533": "struction", "3534": " Robert", "3535": " company", "3536": " legisl", "3537": " situation", "3538": "urity", "3539": " Hall", "3540": "36", "3541": " don", "3542": " doc", "3543": " change", "3544": " guard", "3545": " App", "3546": " deploy", "3547": " word", "3548": "ruction", "3549": " Come", "3550": " \u00c2\u00a3", "3551": " sem", "3552": "irst", "3553": " mel", "3554": " Treas", "3555": " Serv", "3556": " beat", "3557": " Adam", "3558": "unity", "3559": "isation", "3560": "cher", "3561": " anal", "3562": " occurred", "3563": " prominent", "3564": "ental", "3565": " max", "3566": " maxim", "3567": " enc", "3568": " injury", "3569": " going", "3570": "standing", "3571": " jud", "3572": "ney", "3573": "ville", "3574": " Trans", "3575": " missing", "3576": " stage", "3577": "order", "3578": " decision", "3579": " key", "3580": "ware", "3581": " write", "3582": " aim", "3583": " step", "3584": "heast", "3585": " cross", "3586": " annual", "3587": " speed", "3588": "anced", "3589": " God", "3590": " sail", "3591": " accepted", "3592": " Dan", "3593": " Khan", "3594": " Dh", "3595": " Franc", "3596": " secondary", "3597": " objects", "3598": " worship", "3599": " adop", "3600": " categ", "3601": "pread", "3602": " dism", "3603": "urb", "3604": " Aviation", "3605": "space", "3606": " France", "3607": " Class", "3608": " prohib", "3609": " mi", "3610": " Force", "3611": " carbonaria", "3612": " cup", "3613": " discovered", "3614": " ylide", "3615": " Court", "3616": " Tenn", "3617": " Tennant", "3618": "owski", "3619": " discovery", "3620": "\u00c3\u00bc", "3621": " audience", "3622": " Thail", "3623": " Thailand", "3624": "sin", "3625": "\u00e3\u0082", "3626": " unit", "3627": " secret", "3628": "iple", "3629": " western", "3630": " assigned", "3631": "porary", "3632": "erous", "3633": " leader", "3634": " ke", "3635": "chest", "3636": "icle", "3637": " Offic", "3638": " latter", "3639": " purpose", "3640": "anks", "3641": " cast", "3642": " Ma", "3643": " Mac", "3644": "inct", "3645": " previously", "3646": "ockey", "3647": " perman", "3648": " let", "3649": " quickly", "3650": "ades", "3651": " authorities", "3652": " Confeder", "3653": "26", "3654": "osition", "3655": " account", "3656": "omas", "3657": " pay", "3658": " cru", "3659": "187", "3660": " entrance", "3661": "oned", "3662": " invited", "3663": " Over", "3664": " attended", "3665": " flow", "3666": "umn", "3667": " Os", "3668": "ties", "3669": " room", "3670": " Andrew", "3671": " enough", "3672": " First", "3673": " hom", "3674": "ells", "3675": " chap", "3676": " Back", "3677": " active", "3678": "edic", "3679": "aped", "3680": "ribution", "3681": " Intern", "3682": " analys", "3683": "och", "3684": " complex", "3685": "igg", "3686": " emb", "3687": " worst", "3688": " playoffs", "3689": " alongside", "3690": "iew", "3691": "tt", "3692": " slow", "3693": " immedi", "3694": " Greg", "3695": " Pope", "3696": " Four", "3697": " bi", "3698": " Chart", "3699": " fix", "3700": "osm", "3701": " mixed", "3702": " dance", "3703": "NS", "3704": " Several", "3705": " tons", "3706": " Secretary", "3707": " occupation", "3708": " commented", "3709": " clear", "3710": " passed", "3711": " meant", "3712": "antic", "3713": " roles", "3714": "rab", "3715": " emot", "3716": " projects", "3717": "abh", "3718": " media", "3719": " Week", "3720": " scholars", "3721": "irement", "3722": " Ferdin", "3723": " Ferdinand", "3724": " rare", "3725": " Allied", "3726": " rituals", "3727": " natural", "3728": " mention", "3729": " From", "3730": " grew", "3731": " Horus", "3732": " earth", "3733": " rain", "3734": " Dem", "3735": "ka", "3736": " whole", "3737": " widespread", "3738": " Group", "3739": "eenth", "3740": " extre", "3741": "ex", "3742": "ras", "3743": " information", "3744": "ocr", "3745": " heavily", "3746": "istry", "3747": " policy", "3748": " Rad", "3749": " submarine", "3750": "aint", "3751": " submarines", "3752": "quare", "3753": " treaty", "3754": "aging", "3755": " Darwin", "3756": "utch", "3757": " NBC", "3758": " Night", "3759": " Poles", "3760": "\u00c5\u0084ski", "3761": " Barrow", "3762": " freeway", "3763": " Sipp", "3764": " Sippy", "3765": " \u00e0\u00b8", "3766": "\u00e0\u00b9", "3767": "\u00e3\u0083", "3768": " referred", "3769": " done", "3770": " sales", "3771": " unl", "3772": " Out", "3773": " love", "3774": " Each", "3775": "ift", "3776": " targ", "3777": " feature", "3778": " records", "3779": " upper", "3780": " concept", "3781": " cause", "3782": " independ", "3783": " protect", "3784": "obe", "3785": " lay", "3786": "uty", "3787": " listed", "3788": " poor", "3789": " noting", "3790": " feel", "3791": " Project", "3792": "ama", "3793": " illust", "3794": " volum", "3795": "thur", "3796": " Antiqu", "3797": " determ", "3798": " fut", "3799": " rein", "3800": " rum", "3801": " alread", "3802": " already", "3803": " Mem", "3804": " giving", "3805": " surre", "3806": " must", "3807": "ker", "3808": " gather", "3809": "inity", "3810": " prepared", "3811": " Dun", "3812": "light", "3813": " office", "3814": "ores", "3815": " added", "3816": " floor", "3817": " ones", "3818": " uses", "3819": " raised", "3820": " Christian", "3821": " Church", "3822": " middle", "3823": " spent", "3824": "uck", "3825": " Mid", "3826": " sole", "3827": " give", "3828": " eye", "3829": "illa", "3830": " respectively", "3831": "arth", "3832": " George", "3833": " photograph", "3834": "ervation", "3835": " Sea", "3836": " Sun", "3837": " panel", "3838": "FA", "3839": " impact", "3840": " launched", "3841": " via", "3842": " Res", "3843": " White", "3844": " nuclear", "3845": " usually", "3846": "eller", "3847": "actions", "3848": " stra", "3849": "istant", "3850": " Je", "3851": " Nash", "3852": "eles", "3853": " allowing", "3854": " fans", "3855": " center", "3856": " Gr", "3857": " owner", "3858": " representative", "3859": " Tor", "3860": "ceeded", "3861": " dro", "3862": " Division", "3863": " reflect", "3864": "ius", "3865": " Colle", "3866": " norm", "3867": " Paul", "3868": " cosm", "3869": "ograp", "3870": " contrast", "3871": " performing", "3872": " expressed", "3873": " Iron", "3874": "aked", "3875": " pressure", "3876": "isf", "3877": " squadron", "3878": " demonst", "3879": " Not", "3880": " Bay", "3881": " model", "3882": " gros", "3883": " gross", "3884": " dial", "3885": "war", "3886": " Mumb", "3887": " Mumbai", "3888": " Eastern", "3889": "eleb", "3890": "lin", "3891": "iny", "3892": " sisters", "3893": " Italy", "3894": " maat", "3895": " places", "3896": " king", "3897": " images", "3898": " hy", "3899": " counter", "3900": " court", "3901": "ully", "3902": "ivity", "3903": " Tem", "3904": " emph", "3905": " emphas", "3906": " traditional", "3907": " especial", "3908": " especially", "3909": " increasingly", "3910": " presented", "3911": "lets", "3912": " swallow", "3913": " Sch", "3914": " mic", "3915": "ety", "3916": " airfield", "3917": " experi", "3918": " Po", "3919": " concent", "3920": " fungus", "3921": " der", "3922": " produce", "3923": " Oro", "3924": " Oroz", "3925": " Orozco", "3926": " Cab", "3927": " promotion", "3928": "95", "3929": " Elephanta", "3930": " soundtrack", "3931": " invasion", "3932": " Nazi", "3933": " propaganda", "3934": " Wiz", "3935": " Wizards", "3936": "mp", "3937": " Jer", "3938": " tombs", "3939": " Rhod", "3940": "erne", "3941": " Thaksin", "3942": "rec", "3943": " standard", "3944": "ries", "3945": "anded", "3946": " enem", "3947": " complet", "3948": " Pot", "3949": "onal", "3950": " Form", "3951": " officially", "3952": "heless", "3953": " combined", "3954": " kept", "3955": " Part", "3956": " Emp", "3957": " rather", "3958": " Its", "3959": " singer", "3960": " prec", "3961": " transfer", "3962": " Comp", "3963": "atively", "3964": " Hind", "3965": " Ak", "3966": "rie", "3967": " Since", "3968": "irth", "3969": " Ter", "3970": " Major", "3971": "illery", "3972": " Capt", "3973": " consider", "3974": " wa", "3975": " permitted", "3976": " reinfor", "3977": " lines", "3978": " necessary", "3979": " yet", "3980": " stay", "3981": "nance", "3982": " nor", "3983": " Board", "3984": " Jackson", "3985": " chem", "3986": "uments", "3987": " establishment", "3988": "rief", "3989": " stationed", "3990": " smaller", "3991": " purposes", "3992": " largest", "3993": " libr", "3994": " designated", "3995": " Bab", "3996": " Croy", "3997": " Croydon", "3998": " magazine", "3999": " Pit", "4000": " influences", "4001": " Bi", "4002": " daughter", "4003": "using", "4004": " herself", "4005": " publication", "4006": "here", "4007": " provide", "4008": " doing", "4009": "shire", "4010": " tend", "4011": " services", "4012": " white", "4013": " institutions", "4014": "ency", "4015": " Treasury", "4016": "opol", "4017": " teams", "4018": " regional", "4019": " matches", "4020": " bott", "4021": " value", "4022": " International", "4023": " scient", "4024": " compared", "4025": " Hum", "4026": " Northern", "4027": " Scott", "4028": " streak", "4029": "change", "4030": "33", "4031": " tied", "4032": " better", "4033": " Stan", "4034": " Day", "4035": " our", "4036": " net", "4037": " Sam", "4038": " elim", "4039": " background", "4040": " Sil", "4041": " Bel", "4042": " Go", "4043": "mates", "4044": "olic", "4045": "ino", "4046": " commissioned", "4047": "ressive", "4048": "300", "4049": " stre", "4050": " Sound", "4051": "aily", "4052": " travel", "4053": " identified", "4054": " captured", "4055": " sea", "4056": " settle", "4057": " reduced", "4058": " complete", "4059": "to", "4060": " cle", "4061": " Pennsylvania", "4062": " gradu", "4063": " Gh", "4064": "TV", "4065": " actions", "4066": " Enter", "4067": " seventh", "4068": " cancer", "4069": "aring", "4070": " share", "4071": " retirement", "4072": "hist", "4073": " Isis", "4074": "ands", "4075": " defin", "4076": " Bec", "4077": " Because", "4078": " physical", "4079": "ma", "4080": " compl", "4081": " hair", "4082": " Dream", "4083": " fruit", "4084": " accompl", "4085": " Ev", "4086": " teac", "4087": " observed", "4088": " cited", "4089": "CA", "4090": " recre", "4091": " Pil", "4092": " landing", "4093": " airports", "4094": " flights", "4095": " noise", "4096": "na", "4097": "fall", "4098": " concluded", "4099": " airspace", "4100": " cruiser", "4101": " trees", "4102": "airman", "4103": " cand", "4104": " candid", "4105": " sulfide", "4106": " elections", "4107": " Cabral", "4108": " narr", "4109": " document", "4110": " Gar", "4111": " Minister", "4112": " Broad", "4113": " Gram", "4114": " ceremony", "4115": " Lowe", "4116": " metall", "4117": " funding", "4118": " Warsaw", "4119": " flooding", "4120": "cruis", "4121": " Rhode", "4122": " Kurst", "4123": " Kurstin", "4124": "lecom", "4125": " antimon", "4126": "osaurus", "4127": " writers", "4128": "ustom", "4129": " growth", "4130": " target", "4131": " victory", "4132": " foreign", "4133": " fellow", "4134": " Dah", "4135": " ancient", "4136": "ump", "4137": " true", "4138": " create", "4139": " themes", "4140": " expected", "4141": " musical", "4142": " instruments", "4143": " details", "4144": " coming", "4145": "ifest", "4146": " serious", "4147": "sc", "4148": " directed", "4149": "oom", "4150": " museums", "4151": " Military", "4152": "hetic", "4153": " birth", "4154": " starting", "4155": " Work", "4156": " permanent", "4157": "mun", "4158": " hor", "4159": " Captain", "4160": " ultimately", "4161": " spread", "4162": "uel", "4163": " assemb", "4164": "haps", "4165": "raw", "4166": " leaving", "4167": " morning", "4168": "ges", "4169": " conver", "4170": "86", "4171": " Inf", "4172": " caliber", "4173": " equip", "4174": " successfully", "4175": " sort", "4176": "ledge", "4177": " rap", "4178": " activity", "4179": " Green", "4180": " Sum", "4181": " sixth", "4182": " bar", "4183": " inside", "4184": "road", "4185": " Wash", "4186": "izations", "4187": "oric", "4188": " Mary", "4189": " gir", "4190": " Que", "4191": " paint", "4192": " artist", "4193": " belong", "4194": " literature", "4195": " semi", "4196": " Vict", "4197": " Victor", "4198": "eeper", "4199": " Corn", "4200": " visited", "4201": " purs", "4202": " conv", "4203": " funer", "4204": " favorite", "4205": " chall", "4206": " Background", "4207": " maskray", "4208": " economic", "4209": "ription", "4210": "rial", "4211": " basis", "4212": " analysis", "4213": "irt", "4214": " deep", "4215": " lot", "4216": " seconds", "4217": " changed", "4218": " strugg", "4219": " fr", "4220": " Bost", "4221": "38", "4222": "rong", "4223": " involving", "4224": " bring", "4225": " immediately", "4226": " Shortly", "4227": "idents", "4228": " replace", "4229": " credited", "4230": " Bas", "4231": " patron", "4232": " twice", "4233": " historical", "4234": " camer", "4235": " Cath", "4236": " Maria", "4237": " Stud", "4238": " Count", "4239": " Between", "4240": " suppl", "4241": " means", "4242": " arrived", "4243": " spot", "4244": " advance", "4245": "urder", "4246": " hosted", "4247": "itz", "4248": "iff", "4249": " billion", "4250": " TV", "4251": " Grand", "4252": "emporary", "4253": "bes", "4254": " celeb", "4255": " sought", "4256": " concerned", "4257": " championship", "4258": "itation", "4259": " ability", "4260": " Ale", "4261": " dread", "4262": " Croatia", "4263": "600", "4264": " covered", "4265": "break", "4266": " Turk", "4267": " characteristics", "4268": " depicted", "4269": " depicts", "4270": " whether", "4271": " kings", "4272": " Through", "4273": " Greek", "4274": " Horn", "4275": " basic", "4276": " acts", "4277": " pun", "4278": "wh", "4279": " offs", "4280": " Pop", "4281": " Ari", "4282": " Qu", "4283": " sched", "4284": " sector", "4285": "rolight", "4286": " spect", "4287": "cil", "4288": " selling", "4289": " Aircraft", "4290": " touring", "4291": " powered", "4292": " primarily", "4293": " destruction", "4294": " Patter", "4295": " Patterson", "4296": " newspaper", "4297": " chief", "4298": " Charlot", "4299": " Charlotte", "4300": "sky", "4301": " cycl", "4302": "onium", "4303": " publications", "4304": " violence", "4305": " nearby", "4306": " declared", "4307": " Feast", "4308": " generation", "4309": "vement", "4310": " Chris", "4311": " Kit", "4312": " Portug", "4313": " Mah", "4314": " Hin", "4315": " Hindu", "4316": " portico", "4317": " Tess", "4318": " Home", "4319": " ppg", "4320": " Orland", "4321": " Orlando", "4322": " Russian", "4323": " Tade", "4324": " Tadeusz", "4325": " teachers", "4326": "icz", "4327": " Megaliths", "4328": " Flet", "4329": " debuted", "4330": " \u00e0\u00b9", "4331": " Mort", "4332": " Allosaurus", "4333": "tation", "4334": " Nam", "4335": " penal", "4336": " serving", "4337": "ita", "4338": " depend", "4339": " something", "4340": " health", "4341": "ills", "4342": " unique", "4343": " types", "4344": "raged", "4345": "ounded", "4346": " wear", "4347": " Empire", "4348": " defeat", "4349": "rian", "4350": " creating", "4351": " peace", "4352": " lives", "4353": " appe", "4354": " ess", "4355": " If", "4356": " Kim", "4357": " pleas", "4358": " Richard", "4359": "ressing", "4360": " refer", "4361": " \u00c3", "4362": " distinct", "4363": "gl", "4364": "ped", "4365": " Governor", "4366": "irty", "4367": "ette", "4368": "lend", "4369": " specim", "4370": " Hen", "4371": " news", "4372": " deemed", "4373": "pted", "4374": "umed", "4375": " deliv", "4376": " property", "4377": " officials", "4378": " rif", "4379": " sket", "4380": "elly", "4381": "rd", "4382": " supply", "4383": " equipment", "4384": "icks", "4385": " rev", "4386": "75", "4387": " undert", "4388": " employed", "4389": " remainder", "4390": " box", "4391": " pound", "4392": " Chief", "4393": " Fred", "4394": " brief", "4395": " Washington", "4396": "ancial", "4397": " Public", "4398": "cock", "4399": " preserv", "4400": "hood", "4401": " Edm", "4402": " Pre", "4403": "aph", "4404": " Wal", "4405": " hired", "4406": "iser", "4407": " po", "4408": "hold", "4409": "ship", "4410": "atives", "4411": "wall", "4412": " Du", "4413": " Peng", "4414": " Pengu", "4415": " Seas", "4416": " Old", "4417": " How", "4418": "stead", "4419": " Africa", "4420": " participated", "4421": " opport", "4422": " board", "4423": " bottom", "4424": "abit", "4425": " northern", "4426": " pattern", "4427": "ingal", "4428": " population", "4429": " mouth", "4430": " reports", "4431": "antly", "4432": " function", "4433": " Pra", "4434": " missed", "4435": " Head", "4436": " Tod", "4437": " Jeff", "4438": " Off", "4439": " management", "4440": " Steve", "4441": " Troph", "4442": " Trophy", "4443": " Addition", "4444": " losing", "4445": " average", "4446": " wins", "4447": " McC", "4448": " stating", "4449": " Upon", "4450": " invest", "4451": "64", "4452": " earned", "4453": " collect", "4454": " Anton", "4455": " reform", "4456": " College", "4457": "ula", "4458": " Mer", "4459": "400", "4460": "che", "4461": " Rod", "4462": " Catholic", "4463": " sour", "4464": " Got", "4465": " Crit", "4466": " makes", "4467": "rical", "4468": "ips", "4469": " wood", "4470": " interse", "4471": "ortheast", "4472": " Sav", "4473": " Service", "4474": "ented", "4475": " shells", "4476": "ivalent", "4477": " connected", "4478": "fort", "4479": " !", "4480": " Tri", "4481": " Sri", "4482": " deg", "4483": " thr", "4484": " Mal", "4485": " Canadian", "4486": " lear", "4487": "ya", "4488": " Anup", "4489": "isco", "4490": " cinem", "4491": " Bang", "4492": " Entertain", "4493": " bond", "4494": "riage", "4495": "ulate", "4496": " amb", "4497": " Lightning", "4498": " diss", "4499": "othe", "4500": " spend", "4501": "bor", "4502": " future", "4503": " dreadn", "4504": " bombard", "4505": " cruisers", "4506": " turre", "4507": " turrets", "4508": "ault", "4509": " element", "4510": " applied", "4511": " ideas", "4512": " living", "4513": " Wil", "4514": "aude", "4515": " fully", "4516": "ipl", "4517": " importance", "4518": " frequ", "4519": " z", "4520": "ertain", "4521": " Mean", "4522": "while", "4523": " classic", "4524": " Stone", "4525": " EAS", "4526": " EASA", "4527": " market", "4528": " aerodrome", "4529": " environmental", "4530": " restrict", "4531": " airfields", "4532": " Ministry", "4533": " Ox", "4534": " charg", "4535": "sted", "4536": " refused", "4537": " Type", "4538": " denomin", "4539": " quarter", "4540": "ultural", "4541": " sculpture", "4542": " Ye", "4543": " Core", "4544": "aine", "4545": " academ", "4546": " Here", "4547": " dictator", "4548": " narrative", "4549": " scenes", "4550": " Dutch", "4551": " Ke", "4552": " vessels", "4553": " Hot", "4554": " Palin", "4555": " Emmy", "4556": " Grammy", "4557": " Ca", "4558": " Sevent", "4559": " awards", "4560": " orb", "4561": "urti", "4562": " ban", "4563": "\u00c3\u00b6", "4564": " statute", "4565": " Underground", "4566": "\u00c3\u00b3w", "4567": " studies", "4568": " battlecruis", "4569": " Pigg", "4570": " Piggott", "4571": " Und", "4572": " Underne", "4573": " Underneath", "4574": " Tree", "4575": " Mys", "4576": " Mysore", "4577": " Fletcher", "4578": " stib", "4579": "Sb", "4580": " Mortim", "4581": " Mortimer", "4582": " Tessa", "4583": "usion", "4584": " Nameless", "4585": " multiple", "4586": " Hon", "4587": " compos", "4588": " content", "4589": " Revolution", "4590": " missions", "4591": " location", "4592": " individual", "4593": " select", "4594": " movement", "4595": " classes", "4596": " Arm", "4597": " experience", "4598": "uting", "4599": " composed", "4600": " meaning", "4601": " accused", "4602": "cend", "4603": " consisting", "4604": " becomes", "4605": " aband", "4606": " continues", "4607": "sey", "4608": "reck", "4609": " ways", "4610": " sequ", "4611": "ji", "4612": " gra", "4613": " color", "4614": " web", "4615": " potential", "4616": " data", "4617": "77", "4618": " quality", "4619": " problems", "4620": " leng", "4621": " length", "4622": " extended", "4623": "VD", "4624": " \u00c5", "4625": " hous", "4626": " Dou", "4627": " fear", "4628": "ocated", "4629": " thick", "4630": "ession", "4631": "formed", "4632": " disp", "4633": " reinforce", "4634": "imate", "4635": "itiz", "4636": " therefore", "4637": " charge", "4638": "isions", "4639": " cart", "4640": "antry", "4641": " Confederate", "4642": "ns", "4643": "ening", "4644": " scope", "4645": " enl", "4646": " bul", "4647": " Freder", "4648": " loyal", "4649": " organizations", "4650": " Dep", "4651": "inist", "4652": " honor", "4653": " Station", "4654": " depicting", "4655": " girl", "4656": " Spr", "4657": " Dor", "4658": " glass", "4659": " amate", "4660": " amateur", "4661": "erted", "4662": " Sir", "4663": " Peter", "4664": "yal", "4665": " recomm", "4666": " Cornwall", "4667": "ospital", "4668": " \u00e2\u0082", "4669": " Rel", "4670": " disapp", "4671": " Song", "4672": "icture", "4673": " delay", "4674": "istance", "4675": " leave", "4676": " dedic", "4677": " mainly", "4678": "uter", "4679": "ogen", "4680": "we", "4681": " likely", "4682": " changes", "4683": " vari", "4684": "39", "4685": " shore", "4686": " surf", "4687": " Carter", "4688": " Los", "4689": " Angeles", "4690": " clock", "4691": " managed", "4692": "za", "4693": " Penguins", "4694": " Boston", "4695": "uing", "4696": " willing", "4697": " Pho", "4698": " Phoen", "4699": " Phoenix", "4700": "otes", "4701": " fort", "4702": " Sup", "4703": " investig", "4704": " Central", "4705": " results", "4706": " Player", "4707": " observations", "4708": " Julian", "4709": " committee", "4710": " observatory", "4711": "ifications", "4712": " stars", "4713": " famous", "4714": "gia", "4715": "thi", "4716": "iling", "4717": " height", "4718": " existence", "4719": " highlight", "4720": "ios", "4721": " remix", "4722": " beg", "4723": " aware", "4724": " street", "4725": "apers", "4726": " says", "4727": " toward", "4728": " traffic", "4729": " mob", "4730": " Savann", "4731": " Savannah", "4732": " tonn", "4733": " passeng", "4734": " rend", "4735": " anch", "4736": "41", "4737": "oke", "4738": " equivalent", "4739": " wat", "4740": " Officer", "4741": "iven", "4742": " broke", "4743": " bad", "4744": " defend", "4745": "iled", "4746": " Chest", "4747": " apparent", "4748": "anka", "4749": " dram", "4750": "iller", "4751": " Bollywood", "4752": "reen", "4753": " duo", "4754": " Sar", "4755": "ighter", "4756": " Bach", "4757": " Bachchan", "4758": " responsible", "4759": " ranked", "4760": " concern", "4761": "eball", "4762": "oud", "4763": "esty", "4764": " Karl", "4765": " advanced", "4766": "pass", "4767": " batteries", "4768": " goddesses", "4769": " phara", "4770": " shrines", "4771": " whereas", "4772": " words", "4773": "ingu", "4774": " mentioned", "4775": "bed", "4776": " bodies", "4777": " const", "4778": " Their", "4779": " behav", "4780": " Osir", "4781": " Osiris", "4782": " rule", "4783": " dies", "4784": " murder", "4785": "orps", "4786": " repe", "4787": "inet", "4788": " manifest", "4789": "eg", "4790": " styles", "4791": "ellow", "4792": " unus", "4793": " examples", "4794": " relief", "4795": " Even", "4796": " practices", "4797": " benef", "4798": " threatened", "4799": "tic", "4800": " Mus", "4801": "lim", "4802": " Recording", "4803": " drum", "4804": "imm", "4805": " slight", "4806": " fly", "4807": " comment", "4808": " register", "4809": "worth", "4810": " Aer", "4811": " facilities", "4812": " fall", "4813": "opy", "4814": " experienced", "4815": " conditions", "4816": " joint", "4817": " areas", "4818": " valid", "4819": "cont", "4820": " Airport", "4821": "omp", "4822": " opin", "4823": " Press", "4824": " Cast", "4825": "bodies", "4826": "ilis", "4827": "onald", "4828": " jew", "4829": " pieces", "4830": " Francisco", "4831": " Once", "4832": " Corey", "4833": " Chay", "4834": " Chayk", "4835": " Chaykov", "4836": " Chaykovsky", "4837": "SC", "4838": " hyd", "4839": " academic", "4840": " prison", "4841": "asc", "4842": " intelligence", "4843": " unc", "4844": " marriage", "4845": " holds", "4846": " Writ", "4847": " Leon", "4848": " arrested", "4849": " UN", "4850": " premi", "4851": " village", "4852": " Rav", "4853": " holding", "4854": " carved", "4855": " Dharm", "4856": "veill", "4857": "veillance", "4858": " Seventeenth", "4859": " Amend", "4860": " ath", "4861": " achieved", "4862": " Uk", "4863": " Kras", "4864": " Jerzy", "4865": " Kent", "4866": " ker", "4867": "pton", "4868": " hip", "4869": " lect", "4870": " Japan", "4871": " Imper", "4872": " Imperial", "4873": " adj", "4874": " Charact", "4875": " script", "4876": " edition", "4877": " adapted", "4878": "resses", "4879": "ocked", "4880": " custom", "4881": " squad", "4882": " call", "4883": " getting", "4884": " attacks", "4885": " inn", "4886": "tered", "4887": " shared", "4888": " weapons", "4889": " reven", "4890": "itor", "4891": " partly", "4892": "ading", "4893": " wreck", "4894": "ror", "4895": " memory", "4896": "onents", "4897": " Produ", "4898": "oing", "4899": " arrang", "4900": " singles", "4901": "lease", "4902": " webs", "4903": "ux", "4904": "itable", "4905": " unp", "4906": " exclus", "4907": "joy", "4908": " Na", "4909": " representing", "4910": " extensive", "4911": " overt", "4912": "enge", "4913": "Ar", "4914": "quar", "4915": " Territ", "4916": " proved", "4917": " Tot", "4918": "vention", "4919": " conne", "4920": " rumors", "4921": " widely", "4922": " recalled", "4923": " denied", "4924": "gency", "4925": " security", "4926": " your", "4927": " manu", "4928": " manufact", "4929": "ussion", "4930": "69", "4931": " flint", "4932": " Thomas", "4933": " oil", "4934": " spir", "4935": " purchased", "4936": " obtained", "4937": "ieut", "4938": "ieuten", "4939": " Sanford", "4940": " Guard", "4941": " Frederick", "4942": " fair", "4943": " financial", "4944": "ites", "4945": "throp", "4946": " corres", "4947": " corresp", "4948": " correspond", "4949": " themed", "4950": "rey", "4951": " remarked", "4952": "erg", "4953": " sacred", "4954": " homes", "4955": " indicated", "4956": " Wood", "4957": "bury", "4958": " memorial", "4959": " prepar", "4960": " repres", "4961": " represents", "4962": " organised", "4963": "ifying", "4964": " rights", "4965": "astic", "4966": " shaped", "4967": " skin", "4968": " Indust", "4969": "etic", "4970": " Gulf", "4971": " maximum", "4972": " Hockey", "4973": "tery", "4974": " captain", "4975": " Kings", "4976": " finish", "4977": "ias", "4978": " quest", "4979": " winner", "4980": " assists", "4981": "47", "4982": " attributed", "4983": " calling", "4984": " proceeded", "4985": " penalty", "4986": "48", "4987": " coach", "4988": "wick", "4989": "inds", "4990": " Obs", "4991": " confir", "4992": " flank", "4993": "uries", "4994": "inal", "4995": " Est", "4996": " Third", "4997": "56", "4998": " Mat", "4999": " fixed", "5000": " hall", "5001": " titled", "5002": "pir", "5003": " Jam", "5004": " daily", "5005": "jo", "5006": "    ", "5007": " Wy", "5008": " farm", "5009": "teen", "5010": " blockade", "5011": " Fingal", "5012": " mph", "5013": " Bah", "5014": " brig", "5015": "annel", "5016": " armored", "5017": " trials", "5018": " significantly", "5019": " actually", "5020": " agg", "5021": " Del", "5022": " musician", "5023": " Arab", "5024": " \u00e2\u0082\u00b9", "5025": " Pat", "5026": " emerged", "5027": " Vai", "5028": " starred", "5029": " Flying", "5030": " dating", "5031": " mut", "5032": "teenth", "5033": " preced", "5034": " Hart", "5035": " diag", "5036": " diagn", "5037": " drew", "5038": " appearing", "5039": " declined", "5040": " fighting", "5041": "rap", "5042": " contact", "5043": " manager", "5044": " Ancon", "5045": " Ancona", "5046": " tonnes", "5047": " twin", "5048": " rarely", "5049": " surpr", "5050": " Ancient", "5051": " hier", "5052": " Aten", "5053": " capable", "5054": "ologies", "5055": " seated", "5056": " instance", "5057": " rever", "5058": " regarded", "5059": "ruption", "5060": " har", "5061": " Instead", "5062": " includes", "5063": " titles", "5064": " circum", "5065": "gment", "5066": " existing", "5067": " extreme", "5068": " unusual", "5069": " fill", "5070": " fest", "5071": " Mes", "5072": " regul", "5073": " fa", "5074": " hoped", "5075": " effects", "5076": " Private", "5077": "oked", "5078": "andatory", "5079": " certified", "5080": "ribute", "5081": " tax", "5082": " survey", "5083": " associated", "5084": " microlight", "5085": " licens", "5086": " advert", "5087": "ouncil", "5088": " severe", "5089": ".g", "5090": "uff", "5091": " typically", "5092": "CL", "5093": " absence", "5094": " Cont", "5095": " Brist", "5096": " Bristol", "5097": " opinion", "5098": " criticised", "5099": " destroyers", "5100": " von", "5101": "bert", "5102": "rea", "5103": " square", "5104": " Cong", "5105": " Congress", "5106": " mint", "5107": " denomination", "5108": " circle", "5109": "men", "5110": "imal", "5111": " historian", "5112": " deprec", "5113": " folk", "5114": " candidate", "5115": " voted", "5116": " sus", "5117": "oselect", "5118": " substit", "5119": " election", "5120": " recon", "5121": " La", "5122": " plot", "5123": " Corps", "5124": " Police", "5125": " Agust", "5126": " Polit", "5127": " Mir", "5128": " filmed", "5129": " Front", "5130": "pector", "5131": " Portugues", "5132": " Portuguese", "5133": " Upd", "5134": " Update", "5135": "BC", "5136": " Krak", "5137": " job", "5138": "cast", "5139": " UNE", "5140": " UNESC", "5141": " UNESCO", "5142": " Kon", "5143": " settlement", "5144": " riding", "5145": " skull", "5146": " musicians", "5147": " containing", "5148": "\u00c5\u00a1", "5149": " averaged", "5150": "kins", "5151": " Soviets", "5152": " Jar", "5153": " reactor", "5154": "outing", "5155": " Sche", "5156": " Scheer", "5157": " Krasnyi", "5158": " Hay", "5159": " Son", "5160": " Tell", "5161": "iscuous", "5162": " acid", "5163": " fragilis", "5164": " Media", "5165": " gameplay", "5166": "went", "5167": "awa", "5168": " enemy", "5169": " hero", "5170": "pective", "5171": " turns", "5172": " distance", "5173": " table", "5174": "oint", "5175": " greatly", "5176": " takes", "5177": "now", "5178": "ether", "5179": "orted", "5180": " serve", "5181": "onym", "5182": " lived", "5183": " chance", "5184": " ce", "5185": " separate", "5186": " incorpor", "5187": " faced", "5188": " sense", "5189": " reject", "5190": " website", "5191": " recru", "5192": "ception", "5193": " charts", "5194": " article", "5195": " Magazine", "5196": " criticism", "5197": " returning", "5198": " citing", "5199": " DVD", "5200": " princ", "5201": " volume", "5202": " Nat", "5203": " buildings", "5204": ".com", "5205": " passing", "5206": " bud", "5207": " ammun", "5208": " ammunition", "5209": " specimen", "5210": " Henry", "5211": " authority", "5212": " respond", "5213": "rel", "5214": " depos", "5215": " interpre", "5216": " governor", "5217": " assembled", "5218": " citiz", "5219": " instru", "5220": " withdraw", "5221": " ordnance", "5222": "lock", "5223": " converted", "5224": " Miss", "5225": " Rif", "5226": "hat", "5227": " compan", "5228": " Regiment", "5229": " completely", "5230": " collection", "5231": " aid", "5232": " vic", "5233": " rapid", "5234": "apsed", "5235": "ieutenant", "5236": " ironcl", "5237": " ironclad", "5238": " Chap", "5239": "bel", "5240": " enlisted", "5241": " pack", "5242": " repaired", "5243": " scale", "5244": " Dist", "5245": " renamed", "5246": " arsen", "5247": " bill", "5248": " longer", "5249": " historic", "5250": " visitors", "5251": "rations", "5252": " collaboration", "5253": " Edmund", "5254": " Queen", "5255": " spring", "5256": " releases", "5257": " Australian", "5258": " royal", "5259": "unk", "5260": "que", "5261": " comes", "5262": " flat", "5263": " choice", "5264": " matter", "5265": " Ever", "5266": " spons", "5267": " Set", "5268": " resc", "5269": " Prop", "5270": " chapel", "5271": "erse", "5272": " Lou", "5273": " Louis", "5274": "herry", "5275": " recognised", "5276": " FIFA", "5277": "wide", "5278": " san", "5279": " African", "5280": " founded", "5281": " levels", "5282": " dedicated", "5283": " altern", "5284": " producing", "5285": " Cons", "5286": " Victoria", "5287": "orter", "5288": " inh", "5289": " consists", "5290": " relatively", "5291": " sust", "5292": " sustained", "5293": " straight", "5294": " forward", "5295": "fare", "5296": " pros", "5297": " Rick", "5298": " defens", "5299": " Mason", "5300": " Additionally", "5301": " suffering", "5302": " intention", "5303": " Operations", "5304": " Camp", "5305": " fle", "5306": " posted", "5307": " regulation", "5308": " earn", "5309": " Three", "5310": " shots", "5311": " Mike", "5312": "haw", "5313": "ule", "5314": "aded", "5315": "awn", "5316": " Hun", "5317": "ronom", "5318": " big", "5319": " Mart", "5320": " connect", "5321": " Vat", "5322": " Vatican", "5323": "uit", "5324": " Ig", "5325": "ergy", "5326": " initi", "5327": " camera", "5328": " log", "5329": " streng", "5330": " inspir", "5331": "writ", "5332": " reception", "5333": "can", "5334": " Jo", "5335": " got", "5336": "erson", "5337": " domin", "5338": " hang", "5339": " crow", "5340": "71", "5341": " ends", "5342": " County", "5343": "32", "5344": " Sy", "5345": " network", "5346": " legal", "5347": " Georgia", "5348": " attempts", "5349": " monitors", "5350": " Ha", "5351": " knots", "5352": " Hol", "5353": " Richm", "5354": " Richmond", "5355": " Step", "5356": " deck", "5357": " mounts", "5358": "800", "5359": "ebb", "5360": "ushed", "5361": "abled", "5362": " Dahl", "5363": " positions", "5364": " hospital", "5365": "ydney", "5366": "inking", "5367": " Jac", "5368": " eth", "5369": " oppos", "5370": " opposite", "5371": " rom", "5372": " violent", "5373": " Kum", "5374": " Kumar", "5375": " student", "5376": "aker", "5377": " guest", "5378": " Treat", "5379": " Commission", "5380": " drawn", "5381": " eleph", "5382": " elephant", "5383": " concert", "5384": " Mad", "5385": " Live", "5386": " Ka", "5387": "okes", "5388": "itan", "5389": " worth", "5390": " baseball", "5391": " imm", "5392": " ben", "5393": " bombardment", "5394": "42", "5395": " boats", "5396": " outbreak", "5397": " pharaoh", "5398": " myths", "5399": " argued", "5400": " reasons", "5401": " demons", "5402": " realm", "5403": "icon", "5404": " adopted", "5405": " knew", "5406": " underst", "5407": "oles", "5408": " cha", "5409": " powers", "5410": "uls", "5411": " setting", "5412": "well", "5413": " powerful", "5414": " older", "5415": " fit", "5416": "ilarly", "5417": " interaction", "5418": " guid", "5419": " faith", "5420": " encou", "5421": " reaching", "5422": " Meanwhile", "5423": " Reign", "5424": " peaked", "5425": "icide", "5426": "ardo", "5427": " didn", "5428": " section", "5429": " Ill", "5430": " cool", "5431": " Bra", "5432": "fire", "5433": "ismo", "5434": " gliders", "5435": " helic", "5436": " helicop", "5437": " Pilot", "5438": " Lic", "5439": " agric", "5440": "ulture", "5441": " resulting", "5442": " airport", "5443": " profession", "5444": "urf", "5445": "AR", "5446": " Oxford", "5447": "wich", "5448": " Plan", "5449": " Saint", "5450": "i\u00c4", "5451": " Geopy", "5452": " Geopyxis", "5453": "ida", "5454": " \u00c2\u00b5", "5455": "inate", "5456": "erate", "5457": " institution", "5458": " persu", "5459": " McK", "5460": " McKay", "5461": " eag", "5462": "cation", "5463": " revers", "5464": " anything", "5465": " treas", "5466": " items", "5467": " China", "5468": " synthesis", "5469": " epox", "5470": " serves", "5471": " enanti", "5472": " application", "5473": "ugg", "5474": "otic", "5475": "orf", "5476": " resigned", "5477": " rival", "5478": " executed", "5479": " Cu", "5480": " Golden", "5481": " resign", "5482": " thirty", "5483": " remember", "5484": " Daniel", "5485": " confront", "5486": " tort", "5487": " cens", "5488": " burial", "5489": " Area", "5490": " Broadway", "5491": " nominated", "5492": " column", "5493": " explained", "5494": "iant", "5495": " Kal", "5496": " planet", "5497": " metallic", "5498": " Trim", "5499": " Trimurti", "5500": " mound", "5501": " Ravana", "5502": " carving", "5503": " Band", "5504": " Top", "5505": " Zilt", "5506": " Ziltoid", "5507": " Add", "5508": "ko", "5509": " rainfall", "5510": " protests", "5511": " Office", "5512": " Operation", "5513": " Coll", "5514": " BBC", "5515": "ications", "5516": " Trin", "5517": " Trinsey", "5518": " Oly", "5519": " Olymp", "5520": " averaging", "5521": " theater", "5522": " territories", "5523": " Edu", "5524": "\u00c3\u00bcr", "5525": "is\u00c5\u0082aw", "5526": " Stef", "5527": " Stefan", "5528": "cz", "5529": "hant", "5530": "uts", "5531": " trip", "5532": " Cot", "5533": " sars", "5534": " megal", "5535": " megalithic", "5536": " Evans", "5537": " stable", "5538": " RI", "5539": " jazz", "5540": " Dharmend", "5541": " Dharmendra", "5542": "oob", "5543": "ooba", "5544": " Yeov", "5545": " Yeovil", "5546": " Chairman", "5547": " bah", "5548": " baht", "5549": " CNS", "5550": " Sonthi", "5551": " Bangk", "5552": " Bangkok", "5553": "ideos", "5554": "audeville", "5555": " Cornwallis", "5556": " Strachan", "5557": " Promiscuous", "5558": " Mane", "5559": " Maneater", "5560": " subcont", "5561": " subcontinent", "5562": "anese", "5563": "\u00e3\u0081\u00ae", "5564": " PlayS", "5565": " PlayStation", "5566": "alle", "5567": " follows", "5568": " carrying", "5569": " portion", "5570": " Hit", "5571": " Due", "5572": " text", "5573": " Along", "5574": " difficulty", "5575": " grant", "5576": " gained", "5577": " dang", "5578": " task", "5579": " territory", "5580": " presence", "5581": " Now", "5582": " mechan", "5583": "rant", "5584": " Spe", "5585": " som", "5586": " needed", "5587": "usted", "5588": " essential", "5589": " systems", "5590": "entially", "5591": " heard", "5592": " rejected", "5593": "asy", "5594": " fought", "5595": " journalists", "5596": " reveal", "5597": " enjoy", "5598": " limit", "5599": " affected", "5600": " occas", "5601": " purchase", "5602": " happened", "5603": " tim", "5604": "ki", "5605": " MacAr", "5606": " MacArthur", "5607": " Pac", "5608": " attra", "5609": " Territory", "5610": " Lee", "5611": " budget", "5612": "91", "5613": " recently", "5614": " uncon", "5615": " gar", "5616": " fuel", "5617": " surrender", "5618": " assumed", "5619": " interp", "5620": " direction", "5621": " scr", "5622": " efforts", "5623": " perc", "5624": " battery", "5625": " rifles", "5626": " Of", "5627": " sketch", "5628": " Mach", "5629": "uable", "5630": "ols", "5631": " proc", "5632": "iful", "5633": "150", "5634": " artillery", "5635": " District", "5636": "ancing", "5637": "airs", "5638": " rail", "5639": " traded", "5640": "clusion", "5641": " paid", "5642": " association", "5643": " Children", "5644": " earliest", "5645": " Spring", "5646": " decades", "5647": "away", "5648": "hum", "5649": " pri", "5650": " remark", "5651": " Middle", "5652": " church", "5653": " receiving", "5654": " Near", "5655": " collaborated", "5656": " heart", "5657": " unable", "5658": " technical", "5659": " Holiday", "5660": " Boy", "5661": " ang", "5662": " discip", "5663": " sport", "5664": " youth", "5665": " Women", "5666": " countries", "5667": "nam", "5668": " narrow", "5669": "nament", "5670": " opportunity", "5671": " bands", "5672": " genus", "5673": "ught", "5674": " Resear", "5675": " Research", "5676": " Organ", "5677": " Further", "5678": " anc", "5679": " Desc", "5680": " corn", "5681": " shape", "5682": "aten", "5683": " Human", "5684": " rate", "5685": " sele", "5686": " Ent", "5687": " Draft", "5688": "nel", "5689": "oming", "5690": " requested", "5691": "rovers", "5692": " score", "5693": "ighth", "5694": " negot", "5695": " negoti", "5696": "51", "5697": " Mont", "5698": " Fil", "5699": " goaltend", "5700": " goaltender", "5701": "kan", "5702": " Mo", "5703": " Ken", "5704": " permission", "5705": " percent", "5706": " bre", "5707": " deadline", "5708": " letter", "5709": " Super", "5710": " extra", "5711": " deliber", "5712": " wrong", "5713": " McE", "5714": " defeated", "5715": " statistics", "5716": "stronom", "5717": " depth", "5718": "lav", "5719": " departed", "5720": "orian", "5721": " Villa", "5722": " Pal", "5723": "iano", "5724": " flanked", "5725": " centuries", "5726": " imple", "5727": " normal", "5728": "cope", "5729": "itated", "5730": " thous", "5731": " border", "5732": "ologist", "5733": " bridge", "5734": " ere", "5735": "phic", "5736": " fres", "5737": " soph", "5738": "ographer", "5739": " begins", "5740": " Love", "5741": "52", "5742": "aska", "5743": " Bridge", "5744": "92", "5745": " northeast", "5746": " mile", "5747": "kin", "5748": "umber", "5749": " casem", "5750": " aground", "5751": " supporting", "5752": " Scot", "5753": " steam", "5754": "uda", "5755": "cting", "5756": " coal", "5757": " channel", "5758": " \u00c2\u00b0", "5759": " bow", "5760": " kg", "5761": " circulation", "5762": " flag", "5763": " Atlantic", "5764": " penet", "5765": "icted", "5766": " wounded", "5767": "vation", "5768": " van", "5769": " Cape", "5770": " Jacqu", "5771": " graduated", "5772": " degree", "5773": " Actress", "5774": " nomination", "5775": " grand", "5776": "amil", "5777": "ding", "5778": "eev", "5779": " Earth", "5780": " Pri", "5781": " Dev", "5782": " convin", "5783": " gives", "5784": " Kh", "5785": " party", "5786": " contemporary", "5787": " chose", "5788": " comeb", "5789": " comeback", "5790": "cles", "5791": " neck", "5792": " college", "5793": "79", "5794": " Ul", "5795": " concerns", "5796": " Alex", "5797": "otion", "5798": " recover", "5799": " battleship", "5800": " Barra", "5801": " i", "5802": " mill", "5803": "ilized", "5804": " assault", "5805": " wors", "5806": " offerings", "5807": " relationships", "5808": "inations", "5809": " diverse", "5810": " beings", "5811": " fal", "5812": " distingu", "5813": " maintained", "5814": " animal", "5815": " icon", "5816": "othes", "5817": " independent", "5818": " communities", "5819": " absor", "5820": " pries", "5821": " overs", "5822": " chaos", "5823": " disorder", "5824": " divin", "5825": "arsh", "5826": "archy", "5827": " amid", "5828": " Such", "5829": " circumst", "5830": " circumstances", "5831": " rise", "5832": " ba", "5833": " Syn", "5834": " picture", "5835": " Bud", "5836": " views", "5837": " believe", "5838": "issed", "5839": "inary", "5840": " recognized", "5841": " bones", "5842": " buried", "5843": "rown", "5844": " adult", "5845": " ruled", "5846": " fate", "5847": "ality", "5848": " strict", "5849": " ign", "5850": " benefit", "5851": " Blood", "5852": " Hann", "5853": " ri", "5854": " really", "5855": " sacrif", "5856": " Review", "5857": "body", "5858": " collected", "5859": " Cross", "5860": " Int", "5861": "lands", "5862": " aerial", "5863": " glider", "5864": " safety", "5865": " gliding", "5866": "lines", "5867": " Council", "5868": " schedul", "5869": " recreational", "5870": " Hal", "5871": "eria", "5872": "urban", "5873": " satisf", "5874": " Transport", "5875": " severely", "5876": " growing", "5877": " legislation", "5878": " alle", "5879": " abroad", "5880": "gar", "5881": " Vir", "5882": " collapsed", "5883": " fruitbodies", "5884": " burned", "5885": " Lew", "5886": " slightly", "5887": "reg", "5888": " sulfur", "5889": " tree", "5890": " jewel", "5891": "cht", "5892": " Soon", "5893": " strike", "5894": " Liber", "5895": " Committee", "5896": " annular", "5897": " attacked", "5898": " Mass", "5899": " surviving", "5900": " Pett", "5901": " replacement", "5902": " Southern", "5903": " meeting", "5904": " grade", "5905": "idation", "5906": " arsenic", "5907": " subsequent", "5908": " format", "5909": " reagent", "5910": "oxide", "5911": " hydro", "5912": " dru", "5913": "alyst", "5914": " vice", "5915": "ocratic", "5916": " Ver", "5917": " Throughout", "5918": " assassins", "5919": " brut", "5920": " sexuality", "5921": " involvement", "5922": "\u00c3\u00adn", "5923": " Bal", "5924": " leads", "5925": " politic", "5926": " behavi", "5927": " prohibited", "5928": " searching", "5929": " Coul", "5930": " industrial", "5931": "cean", "5932": "ston", "5933": " Baby", "5934": " Weekend", "5935": " Amy", "5936": " Poeh", "5937": " Poehler", "5938": " salv", "5939": "ste", "5940": " Ros", "5941": " Rud", "5942": " theaters", "5943": " Journal", "5944": "under", "5945": " Run", "5946": "cers", "5947": "tra", "5948": " Kail", "5949": " Kailash", "5950": " Vish", "5951": " Vishn", "5952": " Vishnu", "5953": "vara", "5954": " architectural", "5955": "ambers", "5956": "inga", "5957": " structures", "5958": "je", "5959": " confisc", "5960": " camps", "5961": " Community", "5962": " surveillance", "5963": " Appe", "5964": "stitut", "5965": "stitutional", "5966": " Bask", "5967": " Basketball", "5968": " Magic", "5969": " Boys", "5970": " Knicks", "5971": " Morrison", "5972": "opal", "5973": " annex", "5974": " annexed", "5975": " Education", "5976": " educational", "5977": " Krak\u00c3\u00b3w", "5978": "ogues", "5979": " Stanis\u00c5\u0082aw", "5980": "owa", "5981": "imier", "5982": "imierz", "5983": " Arihant", "5984": " Russia", "5985": "rosser", "5986": " barrows", "5987": " Coty", "5988": " antiqu", "5989": " Ashb", "5990": " Ashbee", "5991": " Antiquaries", "5992": " Kav", "5993": " Kavk", "5994": " Kavkaz", "5995": "ender", "5996": " RCA", "5997": " Album", "5998": " platin", "5999": " platinum", "6000": " Things", "6001": " Hindi", "6002": "aco", "6003": " Mehb", "6004": " Mehbooba", "6005": " Hereford", "6006": " FA", "6007": "\u00e0\u00b8\u00a3", "6008": " Telecom", "6009": " Deputy", "6010": " Anupong", "6011": "uang", "6012": " videos", "6013": " Tellic", "6014": " Tellicherry", "6015": " Bowman", "6016": " Jarvis", "6017": " \u00e2\u0088", "6018": " \u00e2\u0088\u0092", "6019": " SbF", "6020": " UCL", "6021": " lit", "6022": " prede", "6023": " predecess", "6024": " Sak", "6025": " sung", "6026": " expanded", "6027": " fan", "6028": " comic", "6029": " episodes", "6030": " skills", "6031": " Personal", "6032": "wise", "6033": "asters", "6034": " Command", "6035": "ca", "6036": " Gallian", "6037": " crim", "6038": "tah", "6039": "ady", "6040": " unk", "6041": " interests", "6042": " losses", "6043": " formal", "6044": " alleg", "6045": " want", "6046": " revolutionary", "6047": " Kaz", "6048": "vements", "6049": " structure", "6050": " upgr", "6051": " sett", "6052": " appeal", "6053": "iform", "6054": " tone", "6055": " Mos", "6056": " demo", "6057": " promote", "6058": " chos", "6059": " chosen", "6060": " bon", "6061": "like", "6062": " abilities", "6063": " Shin", "6064": " focused", "6065": "eline", "6066": "ari", "6067": " Som", "6068": " Flow", "6069": "quarters", "6070": " \u00c3\u0086", "6071": " \u00c3\u0086st", "6072": " \u00c3\u0086sthetic", "6073": " Dougl", "6074": " Douglas", "6075": "oma", "6076": " Origin", "6077": " store", "6078": " Totten", "6079": " deleg", "6080": "ector", "6081": " winter", "6082": " Fort", "6083": " simp", "6084": " simply", "6085": " interpreted", "6086": " citizens", "6087": " confl", "6088": " demand", "6089": " percussion", "6090": " cann", "6091": "182", "6092": "53", "6093": "54", "6094": " somew", "6095": " somewhat", "6096": " Infantry", "6097": " Van", "6098": "burg", "6099": " knowledge", "6100": " neither", "6101": " enter", "6102": " rapidly", "6103": " consc", "6104": " equal", "6105": " Dunning", "6106": " Dunnington", "6107": " rank", "6108": "onel", "6109": " Ret", "6110": "130", "6111": " pist", "6112": " painted", "6113": " predomin", "6114": " evac", "6115": " evacu", "6116": " Jose", "6117": "racks", "6118": " rear", "6119": " northw", "6120": " abandoned", "6121": " park", "6122": " demol", "6123": " electric", "6124": "inistration", "6125": " Doroth", "6126": " Dorothy", "6127": " Kate", "6128": " Though", "6129": " Fairy", "6130": " wasn", "6131": " paintings", "6132": " Summer", "6133": " pill", "6134": " solely", "6135": " recommended", "6136": " pursue", "6137": " division", "6138": " tried", "6139": " cloth", "6140": " perhaps", "6141": " printing", "6142": " admitted", "6143": " agency", "6144": " suggests", "6145": " dated", "6146": "mon", "6147": " Guardian", "6148": "rees", "6149": " Bann", "6150": " gover", "6151": " worldwide", "6152": "zer", "6153": "49", "6154": "orns", "6155": " dark", "6156": " eyes", "6157": " caught", "6158": "onom", "6159": " description", "6160": " ancest", "6161": " closely", "6162": " continental", "6163": " native", "6164": " amph", "6165": " measure", "6166": " reach", "6167": " intens", "6168": " note", "6169": " Assistant", "6170": " personnel", "6171": " controvers", "6172": " Manag", "6173": " Howson", "6174": " signing", "6175": " expect", "6176": " Allen", "6177": " injured", "6178": " Jason", "6179": " mom", "6180": " Hitch", "6181": " Hitchcock", "6182": " numerous", "6183": " tempor", "6184": " temporarily", "6185": " sitting", "6186": " interim", "6187": " corre", "6188": "cts", "6189": " Vice", "6190": " propos", "6191": " sho", "6192": "lor", "6193": " organization", "6194": " eliminated", "6195": " listing", "6196": " Time", "6197": " Den", "6198": " worn", "6199": "versely", "6200": " Gregorian", "6201": " Ap", "6202": "III", "6203": " Observ", "6204": " instrument", "6205": " Card", "6206": " Sat", "6207": " Sub", "6208": " seat", "6209": " shif", "6210": " encl", "6211": "orated", "6212": " Today", "6213": " strength", "6214": " cases", "6215": "anthe", "6216": " appears", "6217": " Power", "6218": " Raf", "6219": " Rafael", "6220": "thm", "6221": " tal", "6222": " wooden", "6223": " newspapers", "6224": " looking", "6225": " cho", "6226": " crowd", "6227": " Highway", "6228": "ignment", "6229": " hull", "6230": " beam", "6231": " tub", "6232": " Bulloch", "6233": " carg", "6234": " cargo", "6235": " passengers", "6236": " Stephen", "6237": " Mall", "6238": " sell", "6239": " sides", "6240": " inner", "6241": " ori", "6242": " rect", "6243": " What", "6244": "nall", "6245": " demonstrated", "6246": "iga", "6247": " aboard", "6248": " onto", "6249": "raying", "6250": " fragments", "6251": " resistance", "6252": " require", "6253": " crews", "6254": "apes", "6255": " drama", "6256": "ala", "6257": " grossing", "6258": " escape", "6259": " Arabic", "6260": "hm", "6261": " Ven", "6262": " Ga", "6263": " Malin", "6264": " Malini", "6265": " negative", "6266": " Sa", "6267": " fat", "6268": " Entertainment", "6269": "iger", "6270": " Amit", "6271": " Amitabh", "6272": " sha", "6273": " animals", "6274": " ceremon", "6275": "rity", "6276": " scor", "6277": " universities", "6278": " Coast", "6279": "84", "6280": "aimed", "6281": "94", "6282": " check", "6283": " interested", "6284": "odge", "6285": "itt", "6286": " Sz", "6287": " armament", "6288": "37", "6289": " surrounded", "6290": " boat", "6291": " beliefs", "6292": " combinations", "6293": " writings", "6294": "the", "6295": " era", "6296": " Atenism", "6297": " fundament", "6298": " estimates", "6299": " signs", "6300": " definition", "6301": "historic", "6302": " strongly", "6303": " Upper", "6304": " priests", "6305": " oversaw", "6306": " Nile", "6307": "mn", "6308": " divinities", "6309": " causing", "6310": " contain", "6311": " maintain", "6312": " journ", "6313": " renew", "6314": " statues", "6315": " Op", "6316": " Hath", "6317": " Hathor", "6318": " sets", "6319": "itude", "6320": " periods", "6321": " rose", "6322": " soul", "6323": " Every", "6324": "hent", "6325": " exclud", "6326": " asserted", "6327": " interchange", "6328": " heads", "6329": " alone", "6330": " headed", "6331": " blue", "6332": " mort", "6333": " status", "6334": " Temple", "6335": " decisions", "6336": " laid", "6337": "ported", "6338": " interpret", "6339": "eric", "6340": " Geff", "6341": " Geffen", "6342": " Industry", "6343": " ut", "6344": " od", "6345": " promotional", "6346": " Roll", "6347": " cres", "6348": "\u00c3\u00a4", "6349": " registered", "6350": "opl", "6351": " Licence", "6352": "worthiness", "6353": " significance", "6354": " regarding", "6355": " scheduled", "6356": " trained", "6357": " blend", "6358": " Commercial", "6359": " Ire", "6360": " Ireland", "6361": " wider", "6362": " rough", "6363": " sect", "6364": "oded", "6365": " charges", "6366": " alleged", "6367": "gs", "6368": " Croatian", "6369": " wars", "6370": " accompan", "6371": "aneously", "6372": " lov", "6373": " Lewis", "6374": "rich", "6375": " collections", "6376": " moderate", "6377": "adic", "6378": " opposed", "6379": " Liberty", "6380": " Nevert", "6381": " Nevertheless", "6382": " mints", "6383": " repeated", "6384": " Massach", "6385": " Massachus", "6386": " Massachuset", "6387": " Massachusetts", "6388": " beaut", "6389": " ensure", "6390": "uble", "6391": " secured", "6392": "kes", "6393": "zir", "6394": " reactions", "6395": " ylides", "6396": " classical", "6397": " Ci", "6398": " Ciud", "6399": " Ciudad", "6400": "\u00c3\u00a1re", "6401": "\u00c3\u00a1rez", "6402": " Cuaut", "6403": " Cuautla", "6404": "ora", "6405": " conspir", "6406": " corruption", "6407": " machismo", "6408": " theatrical", "6409": " summ", "6410": " everything", "6411": "ccessful", "6412": " Ol", "6413": " scholar", "6414": " behaviour", "6415": " sen", "6416": " crash", "6417": "osure", "6418": " CO", "6419": " replacing", "6420": " Defence", "6421": " Commanding", "6422": " Dr", "6423": " Trust", "6424": " accl", "6425": " rat", "6426": "hurst", "6427": " Fall", "6428": " Comedy", "6429": " Also", "6430": " commercials", "6431": " Good", "6432": " master", "6433": " broadcast", "6434": " producers", "6435": "ek", "6436": "arap", "6437": " Cave", "6438": " chambers", "6439": " Yog", "6440": " Just", "6441": " Linga", "6442": " Monuments", "6443": " Heavy", "6444": " Spector", "6445": " push", "6446": " sam", "6447": "ualties", "6448": " footage", "6449": " genres", "6450": " Independ", "6451": " Leop", "6452": " Pra\u00c5\u00a1", "6453": " Pra\u00c5\u00a1ka", "6454": " Jews", "6455": " confiscated", "6456": " photographs", "6457": " vac", "6458": " gust", "6459": " conduct", "6460": " banned", "6461": "iot", "6462": "inz", "6463": " Amendment", "6464": " Hornets", "6465": " defensive", "6466": " Bobc", "6467": "lo", "6468": " Flor", "6469": " Florida", "6470": " Rodman", "6471": " Jazz", "6472": " studying", "6473": " forty", "6474": " Nazis", "6475": " Propaganda", "6476": " Ukrain", "6477": " W\u00c5\u0082", "6478": "hett", "6479": " politics", "6480": " Prime", "6481": " K\u00c3\u00b6", "6482": " K\u00c3\u00b6n", "6483": " K\u00c3\u00b6nig", "6484": " Grosser", "6485": " Kurf", "6486": " Kurf\u00c3\u00bcr", "6487": " Kurf\u00c3\u00bcrst", "6488": " battlecruisers", "6489": "ombe", "6490": " BCE", "6491": " slab", "6492": " Petrie", "6493": " lane", "6494": " arter", "6495": " arterial", "6496": " RID", "6497": "easter", "6498": " trop", "6499": " daco", "6500": " Bhad", "6501": " Bhaduri", "6502": " dialogues", "6503": " Basanti", "6504": "alore", "6505": " Say", "6506": "mouth", "6507": " junt", "6508": " junta", "6509": " swallowing", "6510": " flame", "6511": " frig", "6512": " Fleetwood", "6513": " Coulson", "6514": "\u00c5\u008d", "6515": " Japanese", "6516": " tact", "6517": " retained", "6518": " underwent", "6519": "load", "6520": " transl", "6521": "ira", "6522": " partially", "6523": "iced", "6524": " spee", "6525": " speech", "6526": " lin", "6527": " maps", "6528": " granted", "6529": " mission", "6530": " otherwise", "6531": " grown", "6532": " Characters", "6533": " weapon", "6534": " Tro", "6535": "empl", "6536": "ishes", "6537": " Marc", "6538": " seem", "6539": "ingly", "6540": " orders", "6541": " prove", "6542": "iance", "6543": " Concept", "6544": "ario", "6545": " designs", "6546": " uniform", "6547": " anime", "6548": " Production", "6549": " orchest", "6550": "ta", "6551": " arranged", "6552": " responsibility", "6553": " duty", "6554": " versions", "6555": " topped", "6556": "itively", "6557": " Ry", "6558": " Ryan", "6559": " improved", "6560": "itled", "6561": "ivals", "6562": " veh", "6563": " adaptation", "6564": " illustrated", "6565": " Cr", "6566": " Pacific", "6567": " perce", "6568": "pri", "6569": " Federal", "6570": " possession", "6571": " connection", "6572": " reinforcements", "6573": "ocal", "6574": " mess", "6575": " ultimate", "6576": " conflict", "6577": " prompted", "6578": " mun", "6579": " executive", "6580": "raham", "6581": " conqu", "6582": " stayed", "6583": " Thus", "6584": " substant", "6585": " flintlock", "6586": "ooth", "6587": " Rifle", "6588": " Note", "6589": " Mount", "6590": "inery", "6591": " chemical", "6592": " laboratory", "6593": " operated", "6594": "icient", "6595": " engage", "6596": " vicinity", "6597": " Libr", "6598": " Library", "6599": " Lieutenant", "6600": " Vol", "6601": " Tra", "6602": "zes", "6603": " rounds", "6604": "96", "6605": " marks", "6606": " briefly", "6607": " Joseph", "6608": " Prior", "6609": " flo", "6610": " today", "6611": " Arthur", "6612": " exclusively", "6613": " fur", "6614": " veter", "6615": " library", "6616": " Works", "6617": " cards", "6618": " artwork", "6619": "lake", "6620": " Raph", "6621": " Raphael", "6622": " Wad", "6623": " parent", "6624": " govern", "6625": " evening", "6626": " freed", "6627": " submitted", "6628": " taugh", "6629": " taught", "6630": " kinderg", "6631": " kindergart", "6632": " kindergarten", "6633": " Pan", "6634": "wa", "6635": " publis", "6636": " accomp", "6637": " accompany", "6638": "aste", "6639": "rons", "6640": " atm", "6641": " atmosp", "6642": "rose", "6643": " Gard", "6644": " Yorkshire", "6645": " funeral", "6646": "yard", "6647": " Warne", "6648": " acquired", "6649": " covers", "6650": " dust", "6651": " Allies", "6652": " conscious", "6653": " outl", "6654": "46", "6655": "pty", "6656": " Pen", "6657": " Nor", "6658": " installed", "6659": " Win", "6660": " Let", "6661": " Forces", "6662": " Among", "6663": " withdrew", "6664": " challeng", "6665": " Ban", "6666": "uses", "6667": " organized", "6668": " diam", "6669": " tail", "6670": " fold", "6671": "rays", "6672": "cha", "6673": " females", "6674": " incident", "6675": " distribution", "6676": "more", "6677": " suggesting", "6678": " cry", "6679": " thin", "6680": " sn", "6681": "acles", "6682": " sle", "6683": " Timor", "6684": " developing", "6685": " conservation", "6686": " capture", "6687": "arded", "6688": " factors", "6689": " assess", "6690": " receive", "6691": " Richards", "6692": " moving", "6693": " agent", "6694": " question", "6695": " entering", "6696": "bur", "6697": " Russell", "6698": " clubs", "6699": " warm", "6700": " ups", "6701": " R\u00c3\u00a9", "6702": " sports", "6703": " picked", "6704": "nes", "6705": "unes", "6706": " understanding", "6707": " Lomb", "6708": " stopped", "6709": " adding", "6710": " phase", "6711": " bringing", "6712": " thing", "6713": " weight", "6714": " dropped", "6715": " joining", "6716": "ipped", "6717": " teammates", "6718": " Commod", "6719": " Commodore", "6720": " unrest", "6721": "ricted", "6722": " Winds", "6723": "ulg", "6724": " reforms", "6725": " centre", "6726": " Lu", "6727": "179", "6728": "eor", "6729": " Jup", "6730": " preserved", "6731": " Subsequ", "6732": " autom", "6733": " bear", "6734": " load", "6735": " Charts", "6736": "ien", "6737": " running", "6738": " source", "6739": " inspiration", "6740": " forth", "6741": " Jon", "6742": " Tar", "6743": " keyboard", "6744": " rh", "6745": " Critical", "6746": "izing", "6747": " melod", "6748": " steps", "6749": " Neb", "6750": " Nebr", "6751": " Nebraska", "6752": " rural", "6753": " Creek", "6754": " calc", "6755": " Only", "6756": " economy", "6757": "82", "6758": " reserv", "6759": " merch", "6760": "57", "6761": "700", "6762": " engines", "6763": " supplies", "6764": " disg", "6765": " anchor", "6766": " Mallory", "6767": " endors", "6768": " contrib", "6769": " protected", "6770": "110", "6771": " explos", "6772": " waters", "6773": " virt", "6774": " Tatt", "6775": " Tattnall", "6776": " tide", "6777": " Diss", "6778": " Wee", "6779": " Weehaw", "6780": " Weehawken", "6781": " conce", "6782": " pushed", "6783": " neut", "6784": " actress", "6785": " Lanka", "6786": " communication", "6787": " thriller", "6788": " ensemble", "6789": " Span", "6790": " Spanish", "6791": " Hollywood", "6792": " movie", "6793": " Chop", "6794": " Raj", "6795": " failure", "6796": " fiction", "6797": " romantic", "6798": "mi", "6799": "imb", "6800": " magic", "6801": " seeing", "6802": " contained", "6803": " crime", "6804": " Var", "6805": " attracted", "6806": "icip", "6807": " sanct", "6808": " funds", "6809": " bank", "6810": " Hartford", "6811": " scorer", "6812": " Sab", "6813": " IHL", "6814": " assistant", "6815": " convinced", "6816": " annivers", "6817": "89", "6818": " Mario", "6819": " Lem", "6820": " leadership", "6821": "oms", "6822": "utionary", "6823": " Wol", "6824": " dreadnought", "6825": " Pola", "6826": " flot", "6827": "rane", "6828": " triple", "6829": " mounted", "6830": " tubes", "6831": " attempting", "6832": " aimed", "6833": " Kaiser", "6834": "los", "6835": " lighter", "6836": " worshi", "6837": " Gods", "6838": " fundamental", "6839": " unkn", "6840": " unknown", "6841": "\u00e1\u00b9", "6842": "\u00e1\u00b9\u00af", "6843": " traits", "6844": " reflecting", "6845": " distinguished", "6846": " anthrop", "6847": " hyp", "6848": " regions", "6849": " panthe", "6850": " deaths", "6851": " vener", "6852": "aan", "6853": " AD", "6854": " elite", "6855": "ropol", "6856": " constantly", "6857": " bound", "6858": " watch", "6859": " landsc", "6860": " landscape", "6861": " funerary", "6862": "agu", "6863": "urre", "6864": " journey", "6865": "uner", "6866": " cities", "6867": " epit", "6868": " convey", "6869": " merge", "6870": " frequently", "6871": "cret", "6872": " practice", "6873": " subs", "6874": " debate", "6875": " credit", "6876": " Wall", "6877": " dismissed", "6878": " mum", "6879": " mumm", "6880": "ining", "6881": "rus", "6882": " Inter", "6883": "mediate", "6884": " yellow", "6885": "aun", "6886": " isol", "6887": " pure", "6888": " statue", "6889": " festival", "6890": "unities", "6891": " overse", "6892": " guidance", "6893": " evil", "6894": " accomplish", "6895": " performer", "6896": " architecture", "6897": " hund", "6898": " hundred", "6899": " Muslim", "6900": " Mandatory", "6901": " Suicide", "6902": " Adri", "6903": " Hanneman", "6904": " singing", "6905": "ocaly", "6906": " Lar", "6907": "roll", "6908": " bit", "6909": " sacrifice", "6910": " Silent", "6911": " Metal", "6912": " sounding", "6913": " Ghost", "6914": " Hard", "6915": " rendition", "6916": " List", "6917": " microlights", "6918": " aeropl", "6919": "velled", "6920": " advertis", "6921": " Moth", "6922": "cop", "6923": " Flight", "6924": " Haw", "6925": " restrictions", "6926": "ampionships", "6927": " operate", "6928": " Airports", "6929": " urban", "6930": " effective", "6931": " corresponding", "6932": " segment", "6933": " formally", "6934": " notably", "6935": " expensive", "6936": " claiming", "6937": " concentration", "6938": "isk", "6939": " drop", "6940": " zone", "6941": " sens", "6942": " accompanied", "6943": " Alb", "6944": "outhe", "6945": " Vi", "6946": "i\u00c4\u0087", "6947": "illes", "6948": " organic", "6949": " roots", "6950": "ini", "6951": " approved", "6952": "ules", "6953": " ir", "6954": " forest", "6955": " forming", "6956": " path", "6957": " branch", "6958": " amounts", "6959": " eagle", "6960": " successor", "6961": " Hud", "6962": " Hudson", "6963": " warned", "6964": " facing", "6965": "reath", "6966": " probability", "6967": " Dahlone", "6968": " Dahlonega", "6969": " dub", "6970": " Pettit", "6971": "arp", "6972": " resemb", "6973": " Brown", "6974": " survived", "6975": " epoxides", "6976": "ehyd", "6977": "oselective", "6978": " notable", "6979": " oxide", "6980": " sulfonium", "6981": " reversibility", "6982": " betaine", "6983": "iles", "6984": " yield", "6985": "ometric", "6986": " Ju\u00c3\u00a1rez", "6987": " Porf", "6988": " Porfir", "6989": "\u00c3\u00b3n", "6990": " Lim", "6991": "\u00c3\u00ada", "6992": " suppor", "6993": " supporters", "6994": "oj", "6995": "cho", "6996": " possibility", "6997": " opponents", "6998": " agree", "6999": " cab"}
